00000020
00000000
00000020
00000000
00000000
00000000
00000000
00000020
00000000
00000020
00000000
00000000
00000001
00000001
00000000
00000020
00000000
00000020
00000000
00000020
0000001f
00000020
00000000
00000001
00000000
00000020
00000020
0000001f
00000020
00000001
00000020
00000000
00000020
00000000
00000020
0000001f
00000000
00000020
00000000
00000000
00000000
00000020
00000000
00000000
00000020
0000001f
0000001f
00000000
00000020
00000020
0000001f
00000020
0000001f
0000001f
00000000
00000000
00000000
00000000
00000020
00000000
0000001f
00000020
00000020
00000000
00000020
00000020
00000020
00000020
00000020
00000020
00000020
00000000
00000000
00000001
00000000
0000001f
0000001f
00000020
00000020
00000000
00000020
0000001f
00000020
00000020
00000020
00000000
00000000
00000020
00000001
00000020
00000020
00000000
00000000
0000001f
0000001f
0000001f
00000020
0000001f
00000000
00000000
00000000
00000000
00000000
00000020
00000000
00000020
00000000
00000000
00000001
00000020
00000020
00000000
0000001f
0000001f
00000020
00000001
00000000
00000000
00000000
00000020
00000001
00000001
00000000
00000020
00000000
00000020
00000000
0000001f
00000020
00000020
00000000
00000020
00000000
0000001f
00000020
00000000
00000001
00000000
00000020
00000020
00000000
00000020
0000001f
0000001f
00000000
00000020
0000001f
00000000
00000020
00000000
00000020
00000000
00000001
00000020
0000001f
00000020
0000001f
00000020
00000020
0000001f
00000020
00000020
00000020
0000001f
00000000
00000020
00000001
00000001
00000001
00000020
00000020
0000001f
0000001f
0000001f
00000020
00000020
00000020
00000020
00000020
00000020
00000020
00000000
00000020
00000020
00000020
00000020
00000000
00000020
00000020
00000020
00000020
00000020
00000020
00000020
00000020
00000000
00000020
0000001f
00000020
00000000
00000001
00000000
00000020
00000020
0000001f
0000001f
00000000
00000020
00000020
0000001f
0000001f
00000000
00000000
00000000
00000020
00000000
00000020
00000000
00000001
00000000
00000020
00000000
00000020
00000020
00000020
0000001f
00000000
00000020
00000020
00000020
00000020
00000020
00000001
00000020
00000000
00000000
00000000
00000000
00000020
00000020
00000000
00000020
00000020
00000000
00000020
00000000
00000020
00000020
00000000
00000020
00000000
00000000
00000001
00000000
00000001
00000000
00000020
00000020
00000000
00000001
00000020
00000001
00000001
00000020
00000020
00000001
00000000
00000020
00000020
00000000
00000020
00000020
00000000
00000020
00000001
00000000
00000001
00000001
00000000
00000001
00000000
00000020
00000020
00000001
00000001
00000000
00000001
00000000
00000001
00000020
00000020
00000001
00000000
00000001
00000000
00000000
00000001
00000020
00000000
00000020
00000020
00000020
00000020
00000000
00000020
00000020
00000000
00000000
00000020
00000000
00000000
00000020
00000001
00000020
00000000
00000000
00000000
00000000
00000000
00000020
00000020
00000000
00000000
00000000
00000020
00000000
00000000
00000000
00000000
00000001
00000000
00000000
00000020
00000000
00000001
00000000
00000000
00000000
00000020
00000020
00000000
00000000
00000001
00000000
00000000
00000000
00000020
00000020
00000020
00000020
00000020
00000000
00000000
00000020
00000000
00000000
00000000
00000000
0000001f
00000000
00000020
00000020
00000000
00000020
00000020
00000020
00000020
00000000
00000001
00000001
00000000
0000001f
00000020
00000000
00000020
0000001f
0000001f
00000020
00000000
00000020
0000001f
00000020
00000020
00000000
00000020
00000020
00000020
00000000
0000001f
00000020
0000001f
00000000
00000000
0000001f
00000020
00000001
00000000
00000000
00000000
00000000
00000020
00000020
00000020
0000001f
0000001f
00000000
00000000
00000020
00000000
00000020
00000020
00000001
00000020
00000000
00000001
00000000
00000020
00000020
00000020
0000001f
0000001f
00000020
00000020
00000020
00000020
00000000
00000001
00000001
00000001
00000000
00000001
00000000
00000020
00000001
00000000
00000020
00000020
00000000
00000020
00000000
00000000
00000001
00000000
00000001
00000001
00000020
00000001
00000020
00000000
00000000
00000000
00000000
00000020
00000001
00000020
00000000
00000000
00000020
00000000
00000000
00000000
00000000
00000000
00000000
00000020
00000020
00000000
00000000
00000000
00000001
00000000
00000020
00000000
00000000
00000000
00000020
00000000
00000000
00000001
00000020
00000020
00000020
00000000
00000001
00000000
00000000
00000001
00000000
00000000
00000001
00000000
00000020
00000000
00000000
00000000
00000020
00000020
00000000
00000001
00000000
00000000
00000001
00000001
00000001
00000001
00000001
00000000
00000000
00000000
00000000
00000020
00000020
00000020
00000020
00000000
00000000
00000001
00000000
00000000
00000000
00000020
00000000
00000020
00000001
00000001
00000020
00000020
00000020
00000020
00000020
00000000
00000000
00000020
00000000
00000000
00000000
00000001
00000000
00000020
00000000
00000000
00000001
00000000
00000000
00000000
00000000
00000020
0000001f
00000000
0000001f
0000001f
00000020
00000020
00000000
00000001
00000020
00000001
00000000
00000000
00000000
00000000
0000001f
0000001f
00000020
00000000
00000000
00000000
00000020
00000000
00000001
00000020
00000001
00000001
00000001
00000001
00000001
00000020
00000020
00000020
0000001f
00000000
00000000
00000020
00000000
00000020
00000001
00000020
00000020
00000000
00000001
00000001
00000000
00000020
00000020
00000020
0000001f
00000000
00000001
00000000
00000000
0000001f
0000001f
00000020
00000020
00000020
00000001
00000000
00000000
00000020
00000020
00000020
00000001
00000001
00000000
00000000
00000001
0000001f
0000001f
00000020
00000020
00000000
00000020
00000000
00000020
00000020
00000020
00000000
00000001
00000001
00000000
00000001
00000000
0000001f
00000020
00000020
00000001
00000000
00000020
00000020
00000000
00000020
00000020
00000020
00000001
00000020
00000000
00000001
00000000
00000000
00000020
00000001
00000000
00000001
00000020
00000000
00000020
00000020
0000001f
00000020
00000020
00000000
00000000
00000000
00000020
00000000
00000020
00000001
00000020
00000020
00000020
00000000
00000020
00000020
00000020
0000001f
00000000
00000020
00000000
00000001
00000000
00000000
00000000
00000001
00000000
0000001f
00000020
0000001f
0000001f
00000000
00000020
00000020
00000020
00000000
00000001
00000000
00000000
00000000
00000000
00000020
00000020
00000000
00000000
00000020
0000001f
00000000
0000001f
00000020
00000000
00000020
00000000
00000001
00000000
00000020
00000000
00000000
00000020
00000000
00000000
00000000
00000000
00000020
00000000
00000000
0000001f
00000020
00000020
00000020
00000001
00000020
00000020
00000020
00000020
00000000
00000020
00000000
00000020
00000020
0000001f
00000020
0000001f
00000000
00000020
00000000
00000020
00000020
00000000
00000000
00000001
00000000
00000000
00000020
00000000
00000000
00000000
00000000
00000000
00000000
00000020
00000020
00000020
00000020
00000020
00000020
00000020
00000000
00000020
00000001
00000020
00000020
00000020
00000000
0000001f
0000001f
00000020
00000020
0000001f
0000001f
00000020
00000020
0000001f
00000020
00000020
00000020
00000000
00000020
00000020
00000020
00000000
00000020
0000001f
0000001f
0000001e
00000020
0000001f
0000001f
0000001f
0000001f
00000000
00000020
00000000
00000000
00000020
00000000
00000020
0000001f
0000001f
00000020
00000000
00000000
00000000
00000000
00000020
00000000
00000020
00000020
00000000
00000000
00000000
00000000
00000020
00000000
00000020
00000020
00000000
00000000
00000001
00000001
00000000
00000000
00000000
00000020
0000001f
00000020
0000001f
00000000
00000000
00000000
00000020
00000020
00000020
0000001f
00000000
00000000
00000000
00000001
00000001
00000020
00000020
00000000
00000020
00000020
00000000
00000000
00000000
00000000
0000001f
0000001f
00000020
00000000
00000000
00000000
00000000
00000020
0000001f
00000020
00000020
00000020
00000020
00000000
00000001
00000000
00000000
00000000
00000020
00000000
00000000
00000000
00000020
0000001f
00000020
00000000
00000000
00000020
00000000
00000000
00000001
00000000
00000001
00000000
00000020
00000001
00000000
00000000
00000000
00000000
00000000
00000020
0000001f
00000000
00000000
00000001
00000000
00000000
00000020
00000000
00000000
00000000
00000000
00000020
00000000
00000000
00000020
00000020
00000020
00000020
00000020
00000000
00000020
00000020
00000000
00000001
00000000
00000000
00000000
00000000
00000000
00000020
00000000
0000001f
0000001f
0000001f
00000000
00000000
00000000
00000001
00000000
00000001
00000000
00000000
00000020
0000001f
00000020
0000001f
0000001f
00000000
0000001f
00000000
00000020
00000000
00000020
0000001f
00000020
00000000
00000000
00000020
00000020
00000020
00000000
0000001f
00000020
00000020
00000020
00000020
00000020
00000020
00000000
00000020
00000020
00000020
00000020
00000000
00000020
00000020
00000020
00000020
0000001f
00000020
00000020
0000001f
00000000
00000020
00000000
00000020
00000000
00000000
00000020
00000000
00000001
00000000
00000020
00000020
00000020
00000000
00000000
0000001f
00000020
0000001f
00000020
00000020
00000000
0000001f
00000000
00000020
00000000
00000000
00000000
00000020
00000000
00000020
00000020
00000000
00000020
0000001f
00000000
00000020
00000020
00000020
0000001f
0000001f
0000001f
00000020
0000001f
0000001f
00000000
00000020
00000020
00000000
0000001f
00000000
00000020
00000020
00000020
0000001f
00000020
0000001f
00000020
00000020
00000020
00000000
00000000
00000020
0000001f
00000000
00000020
00000020
00000020
0000001f
00000020
0000001f
0000001f
0000001f
0000001f
00000020
0000001f
00000020
00000000
00000000
00000020
00000020
00000020
00000020
00000020
0000001e
0000001e
00000020
00000020
00000020
00000020
00000020
00000000
00000001
00000020
00000000
00000020
00000020
00000000
00000020
00000000
00000000
0000001f
00000020
00000020
00000000
00000020
00000020
00000020
00000000
00000000
00000020
00000000
00000000
00000000
00000020
00000020
00000000
00000000
00000000
00000000
00000000
00000001
00000000
00000000
00000020
00000020
00000020
00000000
00000000
00000020
00000020
00000001
00000001
00000020
00000000
00000020
00000001
00000000
00000000
00000020
00000020
00000000
00000000
00000001
00000020
00000000
00000000
00000000
00000001
00000000
00000000
00000001
00000001
00000000
00000000
00000020
00000020
00000000
00000000
00000001
00000000
00000000
00000001
00000001
00000000
00000020
00000020
00000020
00000001
00000000
00000020
00000020
00000020
00000000
00000000
00000020
00000000
00000000
00000000
00000000
00000000
00000020
00000020
00000001
00000001
00000000
00000000
00000020
00000000
00000000
00000000
00000020
00000001
00000020
00000000
00000001
00000020
00000000
00000000
00000000
00000000
00000000
00000000
00000020
0000001f
00000020
00000000
00000000
00000020
00000020
00000020
0000001f
00000000
00000020
00000000
00000020
00000000
00000020
00000020
00000020
00000000
0000001f
00000000
00000020
00000020
00000020
0000001e
0000001f
0000001e
0000001f
00000000
00000000
00000020
00000020
0000001f
00000000
00000020
00000000
00000000
00000000
00000000
00000020
0000001f
0000001f
00000020
00000020
00000000
00000020
0000001f
00000020
00000020
00000000
00000000
00000000
00000020
00000000
00000000
00000000
00000000
00000001
00000000
00000020
00000000
00000000
0000001f
00000020
00000001
00000001
00000000
00000000
00000020
00000000
00000001
00000000
00000001
00000000
00000000
00000000
00000000
00000000
00000001
00000020
00000000
00000001
00000000
00000000
00000020
00000000
00000020
00000000
00000000
00000001
00000000
00000000
00000000
00000001
00000000
00000001
00000000
00000020
00000020
00000000
00000020
00000000
00000000
00000020
00000020
0000001f
0000001f
0000001f
00000000
00000000
00000000
00000000
00000000
00000020
00000000
00000000
00000020
00000020
0000001f
00000020
00000020
00000020
0000001f
00000020
0000001f
00000000
00000020
00000000
00000000
00000020
00000000
00000020
00000020
00000020
00000000
00000020
00000020
00000000
00000000
00000020
00000000
00000000
00000020
0000001f
00000020
00000020
00000020
00000000
00000000
00000020
00000000
00000000
00000020
00000000
00000020
00000000
00000001
00000020
00000020
00000000
00000020
00000020
0000001f
00000000
00000020
00000020
00000000
00000000
00000020
00000000
00000000
00000000
00000001
00000001
00000000
00000000
00000000
0000001f
0000001f
00000020
00000000
00000001
00000001
00000020
00000020
00000000
00000001
00000000
00000000
00000020
00000000
00000001
00000000
00000020
00000020
00000020
00000020
00000001
00000000
00000001
00000020
00000000
00000020
00000000
00000001
00000001
00000001
00000001
00000020
0000001f
00000020
00000020
00000001
00000000
00000000
00000000
00000001
00000001
00000020
00000020
00000000
00000001
00000001
00000000
00000000
0000001f
0000001f
00000000
00000000
00000000
00000000
00000020
00000000
00000020
00000020
00000020
00000020
00000000
00000001
00000001
00000020
0000001f
0000001f
00000000
00000001
00000000
00000020
00000020
00000020
00000020
0000001f
00000000
00000000
00000001
00000000
00000001
00000020
00000000
0000001f
00000020
00000000
00000000
00000020
00000020
00000020
0000001f
0000001f
00000000
00000001
00000000
00000000
00000020
00000001
00000020
00000000
00000020
00000000
00000020
00000001
00000000
00000020
0000001f
0000001f
00000020
00000020
00000001
00000020
00000000
00000000
00000020
00000020
00000020
00000020
00000001
00000001
00000020
00000020
00000000
00000020
00000000
00000020
00000000
00000020
00000000
00000020
00000000
00000000
00000020
00000001
00000020
00000001
00000001
00000001
00000020
00000020
00000001
00000020
00000001
00000000
00000020
00000020
00000020
00000000
00000000
00000000
00000000
00000001
00000002
00000001
00000000
00000001
00000001
00000000
00000000
00000001
00000000
00000001
00000001
00000000
00000020
00000000
00000020
00000020
00000000
00000001
00000000
00000001
00000000
00000001
00000000
00000000
00000001
00000000
00000000
00000000
00000000
00000000
00000020
00000000
00000000
00000000
00000020
00000000
00000020
00000000
00000020
00000020
00000000
00000000
00000000
00000020
00000020
00000020
00000020
00000000
00000000
00000000
00000020
00000001
00000000
00000001
00000000
00000001
00000000
00000000
00000020
00000020
00000020
00000000
00000000
00000020
00000000
00000000
00000000
00000000
00000000
00000001
00000000
00000001
00000000
00000020
00000020
00000000
00000000
00000020
00000000
00000020
00000020
00000001
00000000
00000020
00000020
00000020
00000020
00000000
00000000
00000020
00000020
00000000
00000000
00000000
00000001
00000020
00000000
00000000
00000020
00000020
00000000
00000020
0000001f
00000020
00000000
00000000
00000000
00000001
00000001
00000001
00000000
00000000
00000020
00000000
00000000
00000001
00000000
00000020
00000000
00000020
00000020
00000020
00000000
00000001
00000001
00000001
00000000
00000001
00000001
00000001
00000001
00000002
00000001
00000001
00000020
00000000
00000020
00000020
00000020
00000001
00000001
00000020
00000020
00000000
00000000
00000000
00000000
00000001
00000020
00000020
00000020
00000000
00000000
0000001f
00000020
00000000
00000020
00000000
00000001
00000001
00000000
00000000
00000020
0000001f
00000020
00000020
00000000
00000001
00000000
00000000
00000000
00000020
0000001f
00000020
00000020
00000000
00000000
00000020
00000000
0000001f
0000001f
0000001f
0000001f
00000000
00000000
00000020
00000000
00000020
00000020
00000020
00000001
00000000
00000000
00000020
00000020
0000001f
0000001f
00000000
00000000
00000020
00000000
00000000
00000020
00000000
00000020
00000020
00000000
00000000
00000020
00000001
00000000
00000020
00000020
00000020
00000001
00000000
00000001
00000001
00000020
0000001f
00000020
00000020
00000000
00000020
00000020
00000000
00000000
00000000
00000001
00000000
00000020
00000020
00000001
00000000
00000000
0000001f
0000001f
00000020
00000020
00000020
00000000
00000020
00000020
00000020
00000000
00000000
00000020
00000001
00000000
00000000
0000001f
00000020
00000020
00000000
00000001
00000000
00000020
00000000
00000000
00000000
00000000
00000001
00000000
00000001
00000000
0000001f
00000020
00000000
00000000
00000000
00000000
00000020
00000020
00000001
00000000
00000000
00000000
00000000
00000000
00000001
00000000
00000000
00000020
00000000
00000020
00000020
00000020
00000020
00000000
00000000
00000020
00000000
0000001f
00000020
00000000
00000000
00000020
00000020
00000000
00000000
00000020
00000020
00000020
00000020
00000020
00000000
00000000
0000001f
0000001f
0000001f
0000001f
0000001f
00000001
00000000
00000000
00000020
00000020
00000000
00000020
00000020
00000020
00000020
00000020
00000020
00000020
00000020
00000000
00000000
00000020
00000020
00000000
00000000
00000020
00000000
00000000
00000020
00000020
00000000
00000020
00000020
00000020
00000020
00000000
00000000
00000020
00000020
00000000
0000001f
00000000
00000020
00000020
00000020
00000000
00000000
00000001
00000000
00000000
00000000
00000000
00000000
00000000
00000020
00000000
00000020
0000001f
00000000
00000000
00000000
00000000
00000000
00000020
00000001
00000020
00000000
00000000
00000001
00000001
00000020
00000001
00000020
0000001f
00000001
00000000
00000020
00000000
00000001
00000000
00000020
00000001
00000000
00000000
00000001
00000020
00000001
00000020
00000000
0000001f
00000000
00000000
00000001
00000001
00000000
00000000
00000000
0000001f
0000001f
00000000
00000000
00000000
00000001
00000001
00000001
00000020
00000000
00000000
00000020
00000000
00000001
00000001
00000000
00000020
00000020
00000001
00000000
00000000
00000001
00000001
00000020
00000000
0000001f
00000020
00000000
00000000
00000000
00000000
00000001
00000020
00000020
00000000
00000000
00000000
00000020
00000000
00000020
00000000
0000001f
00000020
0000001f
00000020
00000000
00000001
00000001
00000000
00000020
00000000
00000020
00000020
0000001f
0000001f
00000020
00000020
00000020
00000020
00000020
00000020
00000000
00000020
00000020
00000020
00000000
00000000
0000001f
00000020
00000020
00000020
00000000
00000000
00000000
00000020
0000001f
00000020
00000000
00000000
00000000
00000001
00000000
00000020
00000020
00000000
00000000
0000001f
00000020
00000020
00000020
00000020
0000001f
00000020
00000020
00000020
00000000
00000000
00000000
00000001
00000000
00000000
00000020
00000000
0000001f
0000001f
00000020
00000020
00000000
00000000
00000000
00000001
00000020
00000020
00000020
00000020
00000000
00000020
00000020
00000020
00000000
00000020
00000020
00000020
00000020
00000000
00000001
00000000
00000001
00000000
00000000
00000000
00000000
00000000
00000000
00000020
00000000
00000020
00000020
00000020
00000020
00000000
00000001
00000001
00000001
00000000
00000001
00000001
00000000
00000020
00000000
00000000
00000020
00000000
00000020
00000020
00000020
00000000
00000000
00000000
00000001
00000000
00000000
00000000
00000000
00000001
00000001
00000000
00000000
00000000
00000020
00000000
00000000
00000000
00000000
00000000
00000020
00000001
00000001
00000000
00000000
00000000
00000001
00000000
00000000
00000000
00000020
00000000
00000000
00000000
00000020
00000001
00000020
00000020
00000000
00000000
00000020
00000020
00000000
00000001
00000020
0000001f
00000020
00000000
00000000
00000000
00000001
00000020
00000020
00000020
0000001f
0000001f
00000000
00000020
00000020
00000000
00000020
00000020
00000020
00000000
00000000
00000001
00000000
00000001
00000000
00000020
00000020
00000000
00000001
00000020
00000020
00000020
0000001f
00000020
00000020
00000000
00000000
00000020
00000020
00000001
00000000
00000000
00000020
00000000
00000020
00000020
00000000
00000000
00000000
00000020
00000020
00000020
00000000
00000020
00000020
00000000
00000001
00000000
00000020
00000020
00000020
00000001
00000000
00000001
00000002
00000000
00000000
00000000
00000020
00000000
00000020
00000000
00000000
00000020
00000020
00000000
00000000
00000001
00000020
00000001
00000002
00000000
00000020
00000020
00000020
00000020
00000000
00000001
00000000
00000000
00000001
00000001
00000020
00000000
00000020
00000000
00000001
00000000
00000020
00000000
00000000
00000020
00000000
00000000
00000001
00000001
00000020
00000000
00000001
00000000
00000000
00000000
00000001
00000001
00000000
00000020
00000000
00000020
00000000
00000000
00000000
00000001
00000020
00000000
00000000
00000020
00000000
00000020
00000001
00000000
00000000
00000000
00000000
00000020
00000020
00000020
00000000
00000001
00000000
00000000
00000000
00000020
00000000
00000020
00000000
00000000
00000000
00000020
00000020
00000020
0000001f
00000020
00000020
00000000
00000020
00000020
00000020
00000000
00000020
00000020
00000020
00000020
00000020
00000020
00000000
00000020
0000001f
00000020
0000001f
00000020
00000000
00000020
00000020
00000020
00000000
00000020
00000020
00000020
00000020
00000000
0000001f
0000001f
00000020
00000000
00000020
00000020
00000020
00000000
00000000
00000000
00000020
00000000
00000020
00000020
00000000
00000000
00000000
00000000
00000020
00000001
00000000
00000000
00000002
00000001
00000000
00000000
00000001
00000000
00000000
00000020
00000020
00000000
00000000
00000000
00000000
00000000
00000000
00000002
00000001
00000000
00000020
00000001
00000020
00000000
00000000
00000020
00000000
00000020
00000001
00000000
00000000
00000001
00000000
00000020
0000001f
0000001e
0000001f
0000001f
0000001f
0000001e
0000001e
0000001f
00000020
00000000
00000000
00000020
00000000
00000000
00000001
00000020
00000000
0000001f
00000000
00000020
0000001f
0000001e
0000001e
0000001f
00000000
00000000
00000000
00000000
00000001
00000001
00000000
00000000
00000000
00000000
00000001
00000000
00000000
0000001f
0000001f
00000020
00000000
00000001
00000000
00000000
00000020
00000000
00000001
00000020
00000000
00000000
00000000
00000000
00000020
00000020
0000001f
00000020
00000000
00000000
00000000
00000020
00000000
00000000
00000000
00000020
00000020
00000000
00000002
00000001
00000000
00000020
0000001f
00000020
00000020
00000000
00000000
00000001
00000000
00000000
00000020
00000020
00000020
00000001
00000001
00000000
00000001
00000020
00000020
00000020
00000000
00000000
00000000
00000000
00000000
00000020
0000001f
00000020
00000020
00000001
00000000
00000001
00000000
00000000
00000020
00000020
00000000
00000020
00000001
00000020
00000020
00000000
00000000
00000020
00000000
00000000
00000000
00000000
00000000
00000020
00000020
00000020
00000020
00000020
00000000
0000001f
00000020
00000020
0000001f
00000020
00000000
00000000
00000020
00000020
00000020
0000001f
00000000
00000020
00000020
00000000
00000020
0000001f
0000001f
0000001f
00000000
00000001
00000000
00000020
00000000
0000001f
0000001f
00000020
00000000
00000020
00000000
0000001f
00000020
0000001f
0000001f
00000020
00000001
00000000
00000020
00000020
0000001f
00000000
0000001f
00000000
00000020
00000020
00000020
00000020
00000000
00000000
00000000
00000000
00000020
00000020
0000001f
00000020
00000020
00000000
00000020
00000000
00000000
00000000
00000000
00000020
00000000
00000000
00000001
00000001
00000001
00000000
00000020
00000001
00000000
00000020
00000000
00000000
00000001
00000000
00000000
00000020
00000000
00000020
00000000
00000001
00000001
00000001
00000001
00000001
00000002
00000001
00000000
00000020
00000000
00000020
00000020
00000000
00000020
00000000
00000000
00000020
0000001f
00000020
0000001f
00000000
00000020
00000020
00000000
0000001f
00000020
00000020
00000000
00000000
00000020
00000020
00000020
00000000
0000001f
00000020
00000020
00000020
00000020
00000000
00000000
00000020
00000000
00000000
00000020
00000020
00000020
00000020
00000000
00000020
00000000
00000001
00000000
00000000
00000020
00000020
00000000
0000001f
00000000
00000020
00000000
00000000
00000000
00000020
00000020
00000000
00000000
00000020
00000020
00000000
00000001
00000000
00000000
00000000
00000020
00000000
00000000
00000000
00000000
00000000
00000000
00000000
00000020
00000000
00000020
00000020
00000020
00000000
00000000
00000000
00000001
00000000
00000000
00000001
00000020
00000001
00000001
00000000
00000020
00000020
00000020
0000001f
00000020
00000000
00000000
00000020
00000020
00000000
00000001
00000020
00000020
00000000
00000000
00000020
00000000
00000020
0000001f
00000000
00000001
00000000
00000000
00000000
00000000
00000020
00000000
00000020
00000020
00000020
00000000
00000020
00000000
00000000
00000020
00000020
00000020
00000000
00000020
00000020
00000020
00000000
00000020
00000000
00000020
0000001f
0000001f
0000001f
00000000
00000000
00000000
00000020
00000020
0000001f
0000001f
0000001f
0000001f
00000001
00000000
00000020
00000000
0000001f
00000020
0000001f
00000000
00000000
00000020
00000020
00000000
00000020
00000020
00000020
00000020
00000020
00000000
00000000
00000000
00000020
00000000
00000001
00000001
00000001
00000020
00000020
00000020
0000001f
00000020
00000020
00000000
00000020
00000020
0000001f
00000020
00000020
00000000
00000020
00000000
00000000
00000000
00000000
00000000
00000020
00000020
00000020
00000000
00000001
00000020
00000000
00000020
00000000
00000000
00000000
00000020
00000020
00000020
00000000
00000000
00000001
00000020
00000000
00000001
00000020
00000020
00000020
00000020
0000001f
00000020
00000020
00000000
00000000
00000001
00000020
00000000
00000000
00000000
00000020
00000020
00000020
00000000
00000020
00000000
0000001f
0000001f
00000020
00000000
00000000
00000000
00000000
00000020
00000020
00000020
00000000
00000000
00000000
00000020
0000001f
00000020
00000020
00000000
00000020
00000020
00000000
00000000
00000020
00000000
00000000
0000001f
00000000
00000020
00000020
00000020
00000020
00000020
0000001f
0000001f
00000020
00000000
0000001f
0000001f
00000020
0000001f
00000020
00000000
00000020
00000020
00000000
00000020
00000020
00000020
0000001f
00000020
00000020
00000020
0000001f
00000020
00000020
0000001f
00000000
00000020
00000000
00000020
00000000
0000001f
00000000
00000000
00000020
00000020
00000020
0000001f
00000020
00000020
00000020
00000020
00000020
00000020
00000000
00000000
00000000
0000001f
0000001f
00000000
0000001f
0000001f
00000020
00000000
00000020
00000000
00000000
00000001
00000020
00000020
00000001
00000000
00000000
00000020
00000020
00000020
00000020
00000020
00000000
00000020
00000020
00000020
00000020
00000020
00000000
00000000
00000001
00000000
00000000
00000000
00000020
0000001f
00000020
00000020
00000001
00000000
00000000
00000020
0000001f
00000020
00000000
00000000
00000001
00000020
00000000
00000000
00000020
00000020
00000020
00000000
00000020
00000001
00000000
00000020
00000020
00000000
00000001
00000000
00000020
00000000
00000020
0000001f
0000001f
00000020
00000020
00000000
00000000
00000000
00000000
00000000
00000001
00000020
00000000
00000000
00000020
00000020
00000020
00000020
00000020
00000020
00000020
00000020
00000001
00000001
00000020
00000020
00000001
00000000
00000020
00000000
00000020
00000020
00000020
00000020
00000020
00000020
00000020
00000000
00000001
00000001
00000000
00000000
00000000
00000000
00000020
00000000
00000000
0000001f
0000001f
00000020
00000020
00000020
00000020
00000001
00000000
00000000
00000000
00000020
00000020
00000020
00000000
0000001f
00000020
0000001f
0000001f
00000000
0000001f
0000001f
00000020
00000020
00000020
00000000
00000020
00000020
00000000
00000000
00000020
00000020
00000020
00000020
0000001f
00000020
00000000
00000020
00000020
00000000
00000020
00000000
00000000
00000000
00000020
00000000
00000000
00000020
00000020
00000020
0000001f
00000020
00000020
00000020
0000001f
0000001f
00000001
00000000
00000001
00000020
00000001
00000020
00000020
00000000
00000020
00000000
00000020
00000000
00000020
00000020
0000001f
0000001f
00000020
00000020
00000020
00000000
00000020
00000020
00000020
00000000
00000020
00000020
0000001f
00000020
00000020
00000000
0000001f
0000001f
00000020
00000020
00000020
0000001f
0000001f
00000020
00000020
00000000
00000020
00000000
00000020
00000000
00000000
00000020
00000020
00000001
00000020
00000000
00000000
00000020
00000000
00000000
00000000
00000001
00000000
00000000
00000000
00000020
00000000
00000000
00000000
00000020
00000000
00000000
00000000
00000000
00000020
00000000
00000000
00000000
00000000
00000020
00000000
00000000
00000020
00000020
00000000
0000001f
00000020
00000020
00000000
00000020
00000020
00000020
00000020
00000000
00000000
00000001
00000000
00000020
00000020
00000020
0000001f
00000020
00000000
00000020
00000020
00000020
00000000
00000001
00000001
00000000
00000001
00000000
00000000
00000000
0000001f
00000020
00000020
00000020
00000000
00000000
00000000
00000000
00000000
00000000
00000020
00000001
00000020
00000000
00000001
00000020
00000020
00000020
00000000
00000000
00000001
00000000
00000001
00000001
00000000
00000020
00000020
00000000
00000001
00000001
00000000
00000000
00000001
00000000
00000000
00000000
00000000
00000001
00000001
00000000
00000020
00000020
00000000
00000000
00000000
00000002
00000000
00000020
00000000
00000000
00000000
00000001
00000020
00000001
00000000
00000001
00000020
00000000
00000020
00000000
00000020
00000020
00000020
00000000
00000000
00000020
00000000
00000000
00000020
00000020
00000020
00000001
00000000
00000000
00000000
00000020
00000000
0000001f
0000001f
00000020
00000000
0000001f
0000001f
0000001f
0000001f
00000020
00000000
00000000
00000020
00000020
00000020
00000000
00000020
00000020
0000001f
00000000
00000020
00000000
00000000
00000020
00000000
00000000
00000000
00000001
00000020
00000020
00000000
00000000
00000000
0000001f
0000001f
00000020
0000001f
00000020
00000000
00000001
00000000
00000020
00000000
00000000
00000020
00000001
00000000
00000000
00000020
00000000
00000000
00000020
00000000
00000020
00000000
00000020
00000000
00000000
00000000
00000020
00000020
00000000
00000020
00000020
0000001f
0000001f
00000020
00000020
00000000
00000020
00000001
00000020
00000000
00000000
00000020
00000000
00000001
00000000
00000020
00000000
00000020
00000020
00000000
00000020
00000000
00000000
00000000
00000020
00000000
00000001
00000001
00000000
00000000
00000000
00000000
00000000
00000000
00000020
00000020
00000000
00000000
00000000
00000000
00000000
00000000
00000000
00000000
00000001
00000001
00000001
00000020
00000001
00000000
00000020
00000020
00000020
00000000
00000020
00000020
00000020
00000020
00000020
00000020
00000000
00000000
00000020
0000001f
00000000
00000000
00000020
00000020
00000000
00000020
00000000
00000000
00000000
00000020
0000001f
00000000
00000020
0000001f
0000001f
00000020
00000020
00000020
00000000
00000000
00000020
00000000
00000000
00000000
00000020
0000001f
0000001f
00000020
00000000
0000001f
0000001f
0000001f
00000000
00000000
00000000
00000000
00000020
00000020
00000000
0000001f
0000001e
0000001e
00000020
00000020
00000000
00000000
00000020
00000020
00000000
00000020
00000020
00000020
0000001f
00000020
0000001f
0000001f
0000001e
0000001e
0000001f
00000000
00000000
00000000
00000000
00000000
00000000
00000001
00000000
00000020
00000020
00000020
00000020
0000001f
00000020
0000001f
00000020
00000001
00000001
00000000
00000020
00000000
00000020
00000002
00000002
00000001
00000020
00000020
0000001f
00000020
00000020
00000020
00000000
00000001
00000002
00000020
00000020
00000020
00000020
00000001
00000001
00000000
00000000
00000020
0000001f
00000020
00000000
00000000
00000000
00000000
00000000
0000001f
00000000
00000020
00000020
00000000
00000020
00000000
00000000
0000001f
0000001f
00000020
00000020
00000000
00000000
00000000
00000000
00000020
00000020
0000001f
00000020
00000000
00000000
00000000
00000020
00000020
00000000
00000000
00000000
00000000
0000001f
00000020
00000020
00000020
0000001f
00000020
00000020
00000000
00000020
00000020
00000000
00000000
00000000
00000000
00000020
00000020
0000001f
00000000
00000001
00000000
00000020
00000020
00000020
00000020
00000001
00000000
00000000
00000000
00000020
00000000
00000020
0000001f
00000000
00000000
00000001
00000000
00000000
00000020
00000020
00000000
00000000
00000000
00000000
00000020
00000020
00000020
0000001f
00000020
00000000
00000000
00000000
00000000
0000001f
00000020
00000020
00000000
00000000
00000020
00000020
00000020
00000020
0000001f
00000020
00000020
00000000
00000000
00000020
00000020
00000000
00000020
0000001f
00000020
00000020
00000001
00000020
00000000
00000020
0000001f
00000000
00000020
00000000
00000000
00000000
00000000
00000000
00000020
00000000
00000020
00000000
00000020
00000000
00000000
00000000
00000000
00000020
00000020
00000001
00000000
00000020
00000001
00000000
00000000
00000020
00000000
00000000
00000000
00000020
00000020
00000020
00000000
00000000
00000020
00000000
00000000
00000020
00000020
00000000
00000000
00000000
00000000
00000020
00000000
00000020
00000001
00000000
00000000
00000020
00000001
00000001
00000000
00000000
00000000
00000000
00000020
00000001
00000000
00000001
00000020
00000020
00000000
00000020
00000020
00000000
00000020
00000020
0000001f
00000020
00000020
00000000
00000001
00000000
00000020
00000020
00000020
00000020
00000020
00000000
00000020
00000001
00000020
00000020
00000020
00000020
00000020
00000000
00000000
00000020
00000000
00000020
00000020
00000020
00000000
00000020
00000000
00000000
00000000
00000020
00000020
00000000
00000020
00000020
00000000
00000000
00000000
00000020
0000001f
00000000
00000000
00000000
00000020
00000020
00000020
00000020
00000000
00000000
00000000
00000000
00000000
00000020
00000000
0000001f
0000001f
00000000
00000001
00000000
00000000
00000000
00000000
00000000
00000001
00000020
00000001
00000000
00000001
00000020
00000020
0000001f
0000001f
00000000
00000020
00000000
00000001
00000020
00000020
00000001
00000020
00000020
00000020
00000020
00000000
00000000
00000001
00000001
00000000
00000000
00000000
00000020
00000000
00000000
00000000
00000000
0000001f
00000020
00000000
00000000
00000000
00000000
00000000
00000000
00000000
00000020
00000020
00000000
00000000
00000000
00000001
00000000
00000000
00000000
00000000
00000001
00000020
00000000
00000020
0000001f
00000020
00000020
00000020
00000020
00000020
00000020
00000000
00000020
00000020
00000000
00000001
00000000
00000020
00000000
00000020
00000020
0000001f
00000020
00000020
0000001f
00000020
00000020
00000020
00000001
00000020
00000000
00000001
00000020
00000020
00000020
0000001f
0000001f
00000020
00000000
00000020
00000020
00000000
00000000
00000000
00000001
00000001
00000000
00000000
00000020
00000020
00000020
0000001f
00000020
00000000
00000000
0000001f
00000020
00000020
00000000
00000000
00000001
00000000
00000000
00000020
00000020
0000001f
0000001f
0000001f
00000000
00000000
00000020
00000001
00000000
00000000
00000001
00000000
00000000
00000000
00000020
00000000
00000000
0000001f
00000020
00000020
00000020
00000020
00000020
00000001
00000000
00000000
00000000
00000000
00000000
00000020
00000020
00000000
00000000
0000001f
00000000
00000000
00000020
00000000
00000000
00000020
00000000
00000020
00000001
00000001
00000000
00000000
00000000
00000020
00000000
00000001
00000001
00000020
00000020
00000000
00000000
00000000
00000000
00000000
00000000
00000000
00000001
00000001
00000020
00000000
00000000
00000001
00000000
00000000
00000020
00000000
00000000
00000020
00000020
00000000
00000001
00000020
00000000
00000001
00000000
00000000
00000020
00000020
00000000
00000020
00000020
0000001f
00000020
00000000
00000000
00000000
0000001f
00000020
00000020
0000001e
0000001e
0000001f
00000020
0000001f
0000001f
0000001f
00000020
00000001
00000000
0000001f
00000000
0000001f
00000020
00000020
0000001e
0000001f
0000001f
00000000
00000000
00000020
00000000
00000000
00000020
00000000
00000020
00000020
0000001f
00000000
00000020
00000020
00000000
0000001f
00000000
00000001
00000000
00000000
00000001
00000001
00000001
00000001
00000020
00000020
00000020
00000000
00000020
00000020
00000020
00000000
00000001
00000001
00000002
00000001
00000000
00000001
00000001
00000000
00000020
00000020
00000000
00000020
00000000
00000000
00000000
00000000
00000000
00000000
0000001f
00000020
00000020
00000020
00000000
00000000
0000001f
00000000
00000001
00000020
00000020
00000020
00000001
00000001
00000000
00000020
00000020
0000001f
00000000
00000020
00000020
00000000
00000000
00000000
00000001
00000000
00000000
00000020
00000000
00000001
00000001
00000000
00000020
0000001f
00000000
00000000
00000020
00000000
00000000
00000000
00000001
00000001
00000001
00000001
00000000
00000000
00000000
00000000
00000020
00000020
00000000
00000020
00000001
0000001f
00000000
00000001
00000000
00000000
00000000
00000001
00000002
00000001
00000000
00000020
00000020
00000020
0000001f
00000000
00000000
00000000
00000000
00000000
00000020
00000000
00000000
00000000
00000020
00000000
00000020
0000001f
00000000
0000001f
00000020
00000020
00000000
00000000
00000000
00000000
00000020
0000001f
0000001f
0000001f
0000001f
00000020
0000001e
0000001e
00000020
00000000
00000020
00000000
00000000
00000001
00000000
00000020
00000020
00000020
00000020
00000000
00000000
00000020
00000020
00000020
00000020
00000000
00000020
00000000
00000020
00000000
00000020
00000020
00000020
00000020
00000000
00000000
00000001
00000001
00000000
00000020
00000000
00000001
00000000
00000000
00000001
00000020
00000000
00000000
00000020
00000000
00000000
00000000
0000001f
00000020
00000020
00000000
00000000
00000000
0000001f
00000000
00000020
00000020
00000020
00000000
00000020
0000001f
00000020
0000001f
00000020
0000001f
0000001f
0000001f
0000001f
0000001f
00000020
00000020
00000020
00000020
00000020
00000000
00000020
00000020
00000020
0000001f
00000000
00000000
00000020
00000020
0000001f
00000000
00000000
0000001f
0000001f
00000020
00000000
00000000
00000000
00000000
00000000
00000020
00000001
00000020
00000020
00000000
00000020
00000000
00000000
0000001f
0000001f
00000020
00000020
00000000
00000020
00000000
00000000
00000001
00000000
00000000
00000000
00000000
00000020
00000020
00000000
00000020
0000001f
00000000
00000001
00000000
00000000
00000020
00000000
00000000
00000000
00000000
00000000
00000000
00000020
00000020
00000020
00000000
00000000
00000000
00000020
00000020
00000020
00000020
00000000
00000020
00000020
00000000
00000000
00000001
00000000
00000020
0000001f
00000000
00000000
00000020
00000020
00000000
00000000
0000001f
0000001f
0000001e
0000001f
00000020
00000020
00000000
00000020
0000001f
00000020
00000020
00000000
00000001
00000000
00000020
00000020
00000000
00000020
0000001e
0000001f
00000020
00000001
00000020
00000000
00000020
00000001
00000001
00000001
00000000
00000000
00000020
00000020
00000020
00000020
00000020
00000000
00000001
00000001
00000020
00000020
00000001
00000020
00000001
00000020
00000020
00000020
00000000
00000020
00000020
00000020
00000020
00000001
00000000
00000001
0000001f
00000020
00000020
00000020
00000020
00000020
00000000
00000020
00000000
00000020
0000001f
00000020
00000020
00000000
00000000
00000001
00000020
0000001f
0000001f
00000020
0000001f
00000020
00000020
00000020
00000020
0000001f
00000000
00000020
00000000
00000001
00000020
00000000
00000000
0000001f
0000001f
0000001f
0000001f
00000000
00000000
00000020
00000020
00000020
00000020
00000020
00000000
00000020
00000000
00000000
00000020
00000000
0000001f
00000020
0000001f
00000000
00000000
00000000
00000000
00000000
00000020
00000000
00000020
00000020
00000020
00000000
00000000
00000000
00000000
00000000
00000020
00000000
00000000
00000020
00000000
00000000
00000000
00000020
00000000
00000000
00000020
00000000
00000000
00000020
00000020
00000000
00000000
00000020
00000000
00000020
00000000
00000020
00000020
0000001f
0000001f
00000020
00000020
00000000
0000001f
00000020
00000020
00000000
00000000
00000020
00000020
00000020
00000020
00000000
00000000
00000000
00000020
00000020
00000020
00000020
00000000
00000000
00000001
00000000
00000000
0000001f
00000000
00000000
00000020
00000000
00000020
00000020
00000000
00000020
00000020
00000000
00000020
00000020
00000020
00000000
00000001
00000000
00000000
00000000
00000000
00000000
00000020
00000020
0000001f
00000000
00000000
00000020
00000000
00000000
00000000
00000020
00000000
00000000
00000000
00000020
00000001
00000020
00000020
00000020
0000001f
00000020
00000000
00000000
00000000
00000000
00000001
00000000
00000000
00000020
00000001
00000020
00000020
00000020
00000020
0000001f
0000001f
00000000
00000000
00000000
00000000
00000000
00000000
00000020
00000001
00000000
00000001
00000000
00000020
0000001f
00000020
00000020
00000000
00000001
00000000
00000000
00000001
00000001
00000020
00000000
00000020
00000000
00000001
00000000
00000000
00000000
0000001f
0000001f
00000000
00000001
00000001
00000001
00000000
00000000
0000001f
0000001f
0000001f
0000001f
0000001f
00000020
00000000
00000020
0000001f
0000001f
00000000
00000000
00000000
00000000
00000000
00000020
00000020
00000020
00000020
00000020
00000020
00000001
00000001
00000000
00000020
0000001f
00000020
00000020
0000001f
00000000
00000000
00000020
0000001f
00000020
00000020
0000001f
00000020
00000020
00000001
00000000
00000001
00000000
0000001f
0000001f
00000020
00000000
00000000
00000000
00000020
0000001f
00000020
0000001f
00000020
00000000
00000000
00000000
00000000
00000000
00000000
00000020
00000001
00000020
00000000
0000001f
00000020
00000020
0000001f
00000020
00000020
00000020
00000000
00000000
00000020
00000000
00000000
00000020
00000000
00000000
00000020
0000001f
0000001e
0000001f
00000020
00000020
00000020
00000020
00000000
00000020
00000000
00000020
00000000
00000001
00000020
0000001f
0000001f
0000001f
00000020
0000001f
00000020
0000001f
00000020
00000000
00000001
00000000
00000000
00000000
00000000
00000000
00000000
00000000
00000000
00000001
00000000
00000020
00000020
00000000
00000020
00000000
00000001
00000001
00000001
00000001
00000000
00000001
00000000
00000002
00000001
00000001
00000000
00000020
00000000
00000020
00000000
00000020
00000000
00000000
00000020
00000020
00000020
00000000
00000020
00000020
00000000
00000000
00000000
00000020
00000000
00000020
00000020
00000000
00000000
00000000
00000000
0000001f
00000020
00000020
00000020
00000000
00000020
00000020
0000001f
00000020
00000020
00000020
00000020
00000000
00000020
00000000
00000000
00000000
00000000
00000000
00000001
00000000
00000001
00000000
00000020
0000001f
00000020
00000000
00000000
00000000
00000020
00000000
00000020
00000001
00000000
00000000
00000000
00000020
00000020
00000000
00000000
00000000
0000001f
00000000
0000001f
00000000
00000000
00000000
00000001
00000000
00000000
00000000
00000000
00000000
00000000
00000020
00000000
00000001
0000001f
00000020
00000000
00000020
00000020
00000020
00000000
00000000
00000020
00000020
00000020
00000000
00000001
00000020
00000001
00000000
0000001f
00000020
00000020
00000000
00000000
00000000
00000000
00000020
00000000
0000001f
0000001f
00000000
00000001
00000020
00000001
00000020
0000001f
00000020
00000000
00000020
00000000
00000000
00000020
00000020
00000020
00000020
00000020
00000001
00000001
00000001
00000001
00000020
0000001f
0000001f
00000000
00000020
00000000
00000001
00000020
00000000
00000001
00000000
00000000
00000001
00000001
00000000
00000020
0000001f
00000020
00000020
00000000
00000020
00000001
00000000
00000020
00000000
00000020
00000000
00000001
00000001
00000000
00000020
00000000
00000000
00000020
00000020
00000001
00000000
00000000
00000001
00000001
00000020
00000020
00000000
00000020
00000000
00000001
00000020
00000000
00000000
00000000
00000001
00000020
00000020
00000000
00000000
00000001
00000001
00000020
0000001f
00000000
00000020
00000001
00000000
00000001
00000020
00000000
00000000
00000001
00000020
00000000
00000001
00000000
00000000
00000000
00000000
00000020
00000000
00000000
00000000
00000000
00000020
00000000
00000020
00000020
00000000
00000001
00000000
00000000
00000000
00000020
00000020
00000020
00000020
00000000
00000000
00000000
00000000
00000000
00000000
00000000
00000000
0000001f
00000000
00000020
00000020
00000020
00000000
00000020
00000020
00000000
00000000
00000000
00000020
00000000
00000000
00000000
00000020
00000020
00000020
00000000
00000020
0000001f
00000020
0000001f
0000001f
00000020
00000020
00000020
00000000
00000020
00000020
00000020
00000020
00000000
00000020
00000020
0000001f
00000020
00000020
00000020
0000001f
00000000
00000000
00000000
00000001
00000001
00000020
00000020
00000000
00000020
00000000
00000020
00000000
0000001f
00000020
00000020
00000020
0000001f
00000000
00000020
00000000
00000000
00000001
0000001f
00000020
00000020
00000020
00000020
00000000
00000020
00000020
00000000
00000020
00000020
0000001f
00000000
00000000
00000000
00000020
00000020
00000020
00000020
00000020
00000000
00000000
00000020
00000000
00000020
00000020
00000000
00000000
00000000
00000000
0000001f
0000001f
0000001f
00000020
00000000
00000020
00000000
0000001f
0000001f
00000000
00000000
00000001
00000001
00000000
00000020
00000020
00000000
00000020
00000020
00000020
00000000
00000020
00000020
00000000
00000020
00000000
00000000
00000020
00000020
00000000
00000000
00000020
00000020
00000020
0000001f
00000000
00000000
00000000
00000000
00000000
00000000
00000001
00000020
00000000
00000000
00000000
00000020
00000020
00000020
0000001f
0000001f
00000000
00000000
00000001
00000001
00000000
00000001
00000000
00000000
00000000
00000000
00000000
00000020
00000000
00000020
00000020
00000020
00000020
00000020
00000000
00000000
00000000
00000000
00000000
00000001
00000000
00000000
00000001
00000000
0000001f
0000001f
0000001f
00000020
00000000
00000000
00000020
0000001f
00000020
00000000
00000020
00000000
00000000
00000020
00000001
00000020
00000020
0000001f
0000001f
0000001f
00000000
00000020
0000001f
00000020
00000020
00000000
00000020
00000000
00000000
00000020
00000000
00000020
0000001f
0000001f
00000020
00000020
00000000
00000020
00000020
00000020
0000001f
00000000
00000000
00000020
00000000
00000020
00000020
00000000
0000001f
0000001f
00000000
00000000
00000020
00000000
00000000
00000020
00000000
00000020
0000001f
00000000
00000000
00000000
00000020
00000000
0000001f
00000000
00000020
00000020
00000000
00000020
00000000
00000020
00000020
00000020
0000001f
00000020
00000020
00000020
00000000
00000001
00000000
00000020
00000000
00000000
00000000
00000000
00000000
00000000
00000001
00000000
00000020
00000020
00000000
00000001
00000000
00000001
00000000
00000001
00000020
00000020
00000020
00000000
00000020
00000000
00000000
00000001
00000000
00000001
00000000
00000001
00000000
00000001
00000000
00000000
00000000
00000000
00000000
00000000
00000020
00000000
00000000
00000000
00000020
00000020
00000020
00000000
00000000
00000000
00000020
00000020
00000000
00000000
00000000
00000020
00000000
00000020
00000000
00000001
00000001
00000000
00000001
00000000
00000000
00000020
00000020
00000020
00000000
00000000
00000000
00000000
00000000
00000020
00000000
00000000
00000000
00000020
00000001
00000000
00000020
0000001f
00000020
00000000
00000000
00000000
00000000
00000020
00000020
00000000
00000020
00000000
00000000
00000001
00000001
00000000
00000020
00000000
00000020
00000000
00000020
00000000
00000000
00000020
00000020
00000000
00000000
00000020
00000020
00000000
00000001
00000001
00000001
00000000
00000000
00000020
00000000
00000000
0000001f
00000020
00000020
00000020
00000020
00000020
00000020
00000000
00000001
00000020
00000000
00000000
00000020
00000000
00000000
00000001
00000000
00000000
00000020
00000001
00000020
00000000
00000000
00000020
00000001
00000020
00000020
00000020
00000020
00000020
00000020
00000001
00000000
00000000
00000000
00000000
00000020
00000000
00000020
00000001
00000000
00000020
00000020
00000000
00000020
00000020
0000001f
00000020
00000000
00000000
00000000
00000000
00000020
00000020
00000000
00000000
00000001
00000020
00000020
00000020
00000000
00000000
00000020
00000000
00000000
00000001
00000001
0000001f
00000020
00000020
00000020
00000020
00000000
00000000
00000000
00000000
00000020
00000020
00000020
00000000
00000000
00000001
00000000
00000000
00000020
0000001f
00000020
00000020
00000020
00000020
00000000
00000000
00000001
00000000
00000000
00000000
00000020
00000001
00000000
00000000
00000001
00000020
00000000
00000000
00000020
00000001
00000000
00000000
00000001
00000001
00000000
00000020
00000000
00000000
00000001
00000020
00000001
00000000
00000000
00000000
00000020
00000000
00000001
00000001
00000000
00000000
00000001
00000000
00000020
00000001
00000020
00000001
00000001
00000020
00000020
00000001
00000000
00000020
00000000
00000000
00000000
00000000
00000000
00000000
00000020
00000020
00000020
00000000
00000001
00000000
00000000
00000001
00000001
00000001
00000001
00000000
00000001
00000001
00000000
00000020
00000000
00000000
00000020
00000020
00000000
00000001
00000000
00000001
00000000
00000000
00000000
00000020
00000000
00000001
00000000
00000020
00000000
00000000
00000020
00000020
00000020
00000020
00000000
00000000
00000020
00000000
00000000
00000020
00000001
00000000
00000020
00000020
00000020
00000020
00000020
00000020
00000001
00000020
00000000
00000020
00000000
00000020
00000020
00000000
00000000
00000001
00000020
00000000
00000020
00000020
00000020
00000000
00000000
00000020
00000020
00000020
00000020
0000001f
00000000
00000000
00000020
00000000
00000000
00000020
00000000
00000020
0000001f
0000001f
00000000
00000020
00000000
00000000
00000020
00000020
00000000
00000020
00000000
00000000
00000000
00000000
00000000
00000020
00000020
00000000
00000020
00000000
00000000
00000001
00000001
00000001
00000001
00000000
00000000
00000001
00000020
00000000
00000000
00000000
00000020
00000020
00000000
00000000
00000000
00000020
00000000
00000000
00000001
00000001
00000000
00000000
00000001
00000020
00000020
00000000
00000020
00000000
00000000
00000000
00000000
00000000
00000020
00000000
00000000
00000001
00000020
00000001
00000001
00000000
00000020
00000020
00000000
00000001
00000000
00000001
00000000
00000000
0000001f
00000020
00000020
00000000
00000000
00000020
00000000
00000000
00000001
00000020
00000020
00000001
00000001
00000000
00000000
00000020
00000000
00000000
00000020
00000020
00000001
00000000
00000020
00000020
00000000
0000001f
00000000
00000000
00000020
00000000
00000020
00000020
00000000
00000000
00000020
00000000
00000020
00000020
00000000
00000020
00000000
00000000
0000001f
00000000
00000001
00000000
00000020
00000020
00000020
00000020
00000000
00000000
00000020
00000000
00000000
0000001f
00000000
00000020
0000001f
00000000
00000020
00000020
00000020
00000000
00000020
00000020
00000020
00000020
00000020
00000000
0000001f
0000001f
00000000
00000020
00000020
00000000
00000020
00000000
00000000
00000000
00000020
00000000
00000000
00000000
00000000
00000000
00000000
00000020
00000000
00000000
0000001f
0000001f
00000020
00000000
00000000
00000000
00000000
00000020
00000000
00000020
00000000
00000000
00000000
00000000
00000000
00000020
00000020
00000001
00000020
00000000
00000000
00000000
00000020
00000001
00000020
00000000
00000000
00000001
00000000
00000000
00000020
00000020
00000000
00000020
00000020
00000000
00000001
00000000
00000000
00000020
00000000
00000001
00000001
00000001
00000000
00000020
00000020
00000000
00000000
00000000
00000000
00000000
00000001
00000001
00000000
00000000
00000001
00000000
00000000
00000000
00000000
00000020
00000000
00000020
00000000
00000000
00000000
00000001
00000000
00000001
00000000
00000001
00000001
00000001
00000001
00000000
00000001
00000020
00000020
00000000
00000020
00000020
00000020
00000000
00000000
00000001
00000000
00000000
00000001
00000020
00000000
00000000
00000000
00000000
00000000
00000020
00000000
00000020
00000020
00000020
00000000
00000000
00000000
00000001
00000000
00000000
00000000
00000020
00000001
00000001
00000020
00000000
00000000
00000000
00000000
00000000
00000000
00000020
00000020
00000020
0000001f
00000020
00000020
00000000
00000001
00000001
00000020
00000020
00000000
00000020
00000000
00000001
00000020
00000020
00000000
0000001f
00000000
00000000
00000000
00000000
00000002
00000001
00000000
00000020
00000020
00000020
00000020
00000020
00000020
00000020
0000001f
00000020
00000020
00000000
00000020
00000000
00000001
00000001
00000020
00000000
0000001f
0000001f
0000001f
00000000
00000020
00000020
00000000
00000000
00000020
00000000
00000020
00000020
00000001
00000000
00000020
00000020
00000020
0000001f
0000001f
00000020
00000001
00000001
00000001
00000000
00000020
00000020
00000000
00000020
00000001
00000001
00000020
00000000
00000020
00000020
00000001
00000020
00000001
00000000
00000000
00000000
00000000
00000020
00000001
00000020
00000002
00000000
00000000
00000020
00000000
00000001
00000000
00000001
00000001
00000000
00000020
00000020
00000001
00000020
00000000
00000001
00000001
00000000
00000020
00000000
00000000
00000001
00000000
00000020
00000000
00000001
00000000
00000000
00000020
00000000
00000000
00000001
00000000
00000020
00000020
00000020
00000000
00000020
00000001
00000000
00000001
00000000
00000000
00000000
00000000
00000000
00000020
00000020
00000001
00000001
00000020
00000000
00000020
00000020
00000020
00000000
00000020
00000000
00000000
00000020
00000000
00000020
00000001
00000000
00000000
00000020
00000020
00000020
0000001f
0000001f
0000001e
00000020
0000001f
00000020
00000000
00000020
00000020
00000000
00000020
00000020
00000000
00000020
00000000
0000001f
00000020
00000020
00000000
00000020
0000001f
00000020
00000020
00000020
0000001f
00000020
0000001f
00000020
00000020
00000020
00000000
00000020
00000000
00000000
00000000
00000000
00000000
00000020
00000000
00000020
00000020
00000020
00000020
00000000
00000020
00000020
00000000
00000000
00000000
0000001f
00000020
00000020
00000020
0000001f
00000020
0000001f
0000001f
00000020
00000020
00000000
00000000
00000000
0000001f
00000020
00000020
00000020
0000001f
00000020
00000020
00000020
00000020
00000020
00000000
00000000
00000001
00000001
00000000
00000000
00000020
00000020
0000001f
0000001f
00000020
00000000
0000001f
00000000
00000000
00000020
00000000
00000000
00000000
00000001
00000000
00000020
00000000
00000020
0000001f
00000020
00000020
00000020
00000020
00000000
00000020
00000000
00000020
00000020
0000001f
00000020
00000000
0000001f
00000020
00000020
0000001f
00000020
00000020
00000001
00000000
00000000
0000001f
00000000
0000001f
00000020
00000020
00000020
0000001f
00000020
00000020
00000020
0000001f
00000020
00000001
00000000
00000001
00000000
00000020
00000000
00000000
00000000
00000020
00000001
0000001f
00000020
00000020
00000020
00000020
00000020
00000001
00000000
00000000
00000020
00000001
00000001
00000001
00000020
00000000
00000000
0000001f
00000000
00000020
00000020
00000001
00000001
00000001
00000000
00000001
00000000
00000000
00000001
00000000
00000020
00000020
00000020
0000001f
0000001f
00000020
0000001f
00000020
00000020
00000020
00000000
00000000
00000000
00000000
00000000
00000000
0000001f
00000020
00000020
0000001f
00000020
00000000
00000020
0000001f
00000020
00000000
00000000
00000000
00000000
00000000
00000000
00000020
00000020
00000000
00000020
0000001f
00000020
00000000
00000000
00000020
00000020
0000001f
00000000
00000000
00000000
00000020
00000020
00000020
00000000
0000001f
00000020
00000020
0000001f
00000000
0000001f
00000020
00000000
0000001f
00000020
00000020
00000001
00000020
00000000
00000000
00000000
0000001f
00000020
00000000
0000001f
00000000
00000020
00000020
00000020
00000020
00000020
00000020
00000000
00000020
00000020
00000000
00000001
00000000
00000020
00000000
00000000
00000020
00000000
00000020
00000020
00000000
00000020
0000001f
00000020
00000000
00000020
00000020
00000020
00000000
00000020
00000020
0000001f
00000000
00000020
00000020
00000000
00000020
00000000
00000020
00000000
00000020
00000000
00000020
00000000
00000000
00000001
00000000
00000020
00000000
00000020
0000001f
00000000
00000000
00000020
00000001
00000000
00000000
00000001
00000000
00000000
00000020
00000000
00000020
00000000
00000000
00000000
00000000
00000020
00000020
00000020
00000001
00000000
00000000
00000020
00000020
00000020
00000000
00000000
00000001
00000020
00000020
00000020
00000000
00000000
00000020
00000000
00000020
0000001f
00000020
00000020
00000001
00000000
00000000
00000001
00000001
00000020
00000000
00000001
00000001
00000000
00000001
00000020
00000000
00000020
0000001f
00000020
00000000
00000000
00000001
00000000
00000000
00000000
00000000
00000020
00000000
00000000
00000000
00000001
00000000
00000000
00000020
0000001f
00000020
00000000
00000000
00000020
00000000
00000020
00000020
00000001
00000001
00000020
00000000
00000000
00000000
00000000
00000020
00000000
00000000
00000000
00000001
00000000
0000001f
00000020
00000020
00000001
00000000
00000020
00000020
00000020
00000020
0000001f
00000020
00000000
00000000
00000001
00000001
00000020
0000001f
00000020
00000000
00000001
00000020
00000000
00000000
00000020
00000020
0000001f
00000000
00000001
00000001
00000000
00000001
00000020
00000000
00000000
00000020
00000020
00000000
00000000
00000001
00000000
00000020
00000000
00000000
00000000
00000001
00000000
00000000
00000000
00000000
00000000
00000000
00000000
00000020
00000020
00000020
00000001
00000020
00000001
00000000
00000000
00000001
00000020
00000000
00000020
00000000
00000001
00000001
00000001
00000001
00000020
00000000
00000020
00000020
00000000
00000001
00000000
00000020
00000020
00000020
00000000
0000001f
00000000
00000020
00000020
00000000
00000020
00000020
00000020
0000001f
00000001
00000020
00000020
00000000
0000001f
00000020
00000020
00000020
00000020
00000001
00000020
00000000
00000020
00000020
00000020
00000000
00000000
00000000
00000020
00000000
0000001f
0000001f
0000001f
0000001f
00000000
00000000
00000000
00000000
00000000
00000020
00000000
00000020
00000020
00000020
00000000
00000020
0000001f
00000020
00000020
00000000
00000001
00000000
00000000
00000000
00000000
00000020
00000000
00000000
00000000
00000000
00000000
0000001f
00000020
0000001f
00000020
00000020
00000000
00000000
00000020
00000000
00000020
00000000
00000020
00000020
00000000
00000020
00000000
00000000
00000020
00000020
0000001f
00000020
00000000
00000020
00000000
00000000
00000020
00000000
00000000
00000000
00000001
00000000
00000000
00000000
00000020
00000020
00000000
00000000
00000020
0000001f
00000000
00000000
00000001
00000000
00000000
00000020
00000020
00000000
00000001
00000000
00000000
00000000
00000000
00000020
00000020
00000020
00000000
00000001
00000020
00000000
00000020
00000020
00000000
00000020
00000020
00000000
00000000
00000001
00000001
00000000
00000000
00000020
00000000
00000020
00000000
00000020
0000001f
00000020
00000000
0000001f
0000001f
00000000
00000000
00000000
00000001
00000001
00000000
00000020
0000001f
00000020
00000000
0000001f
00000020
00000020
00000020
0000001f
00000020
00000000
00000020
00000000
00000020
00000000
00000000
00000020
0000001f
00000020
0000001f
00000020
00000020
00000000
00000020
00000020
00000020
00000020
00000020
0000001f
00000020
0000001f
00000020
00000000
00000020
0000001f
00000020
00000020
00000000
00000000
00000000
00000020
00000000
00000000
0000001f
00000020
00000020
00000020
00000020
00000020
00000020
0000001f
00000000
00000000
00000001
00000001
00000000
00000000
00000000
00000020
00000000
00000020
00000020
00000020
00000020
00000000
00000000
00000020
00000000
00000000
00000001
00000000
00000001
00000000
00000001
00000020
00000020
00000000
00000020
00000000
00000020
00000020
00000020
0000001f
00000020
00000001
00000000
00000020
00000000
00000000
00000000
00000000
00000020
00000020
00000020
00000020
0000001f
00000020
00000020
0000001f
00000020
00000000
00000020
00000000
00000001
00000001
00000000
00000020
00000000
00000020
00000020
0000001f
00000020
00000020
00000020
0000001f
0000001f
0000001f
00000020
00000000
00000001
00000000
00000000
00000000
00000020
00000020
0000001f
0000001f
00000020
00000000
00000020
00000020
00000000
00000020
0000001f
00000000
00000000
00000001
00000020
00000020
00000000
00000020
00000020
0000001f
00000020
00000000
00000020
00000020
00000000
00000020
00000000
00000020
0000001f
00000020
00000020
00000020
00000020
00000020
00000020
00000000
00000000
00000020
00000020
00000020
00000000
00000020
00000000
00000020
0000001f
00000020
00000020
00000020
00000020
00000020
00000000
00000020
0000001f
00000000
00000000
00000020
0000001f
00000020
00000000
00000020
0000001f
00000020
0000001f
00000020
0000001f
00000020
0000001f
00000020
00000020
00000000
00000020
00000020
00000020
00000001
00000000
00000000
00000000
00000000
00000001
00000001
00000000
00000000
00000020
00000000
00000000
00000020
00000000
00000001
00000020
00000000
00000000
00000000
00000001
00000001
00000000
00000002
00000002
00000001
00000000
00000000
00000020
00000001
00000000
00000000
00000001
00000000
00000000
00000020
00000020
00000000
00000000
00000000
00000001
00000000
00000000
00000000
00000000
00000000
00000020
00000001
00000001
00000001
00000000
00000001
00000020
00000000
00000000
00000001
00000001
00000000
00000001
00000001
00000000
00000020
00000000
00000000
00000001
00000001
00000001
00000001
00000000
00000000
00000000
00000000
00000000
00000000
00000020
00000020
00000020
00000020
00000000
00000020
00000000
00000000
00000000
00000000
00000000
00000001
00000020
0000001f
00000020
00000020
0000001f
00000020
00000020
00000000
00000000
00000020
00000000
00000020
0000001f
00000020
00000020
00000000
00000020
0000001f
0000001f
0000001f
0000001e
0000001f
00000000
00000000
00000000
00000020
0000001f
0000001f
00000020
00000000
00000020
00000020
00000000
00000020
00000000
0000001f
00000020
00000020
00000000
00000000
00000020
00000020
0000001f
00000020
00000020
0000001f
00000000
00000020
00000000
00000000
00000000
00000020
00000020
00000020
00000020
00000000
00000001
00000000
00000020
0000001f
00000020
00000020
0000001f
00000000
00000000
00000000
00000000
00000001
00000000
00000000
00000000
00000020
00000001
00000001
00000020
0000001f
0000001f
0000001e
00000020
00000020
00000000
00000001
00000000
00000000
00000001
00000000
00000020
00000020
00000001
00000000
00000020
00000000
0000001f
00000020
00000020
00000001
00000000
00000001
00000000
00000000
00000000
00000020
00000000
00000000
00000001
00000001
00000000
00000000
00000000
00000000
00000000
00000000
00000001
00000001
00000020
00000000
00000020
00000000
00000020
00000000
00000001
00000001
00000001
00000000
00000000
00000001
00000001
00000000
00000000
00000000
00000020
00000020
00000000
00000020
00000020
00000000
00000000
00000020
00000001
00000001
00000000
00000001
00000000
00000001
00000020
00000000
00000020
00000000
00000000
00000000
00000000
00000000
00000020
00000000
00000000
00000020
00000000
00000000
00000020
00000000
00000000
00000001
00000000
00000000
00000000
00000020
00000020
00000000
00000020
00000000
00000020
00000001
00000001
00000001
00000001
00000020
00000020
00000000
00000001
00000020
00000000
00000000
00000000
00000020
00000020
00000020
00000000
00000001
00000020
00000000
00000001
00000020
00000001
00000020
00000020
00000001
00000000
00000000
00000001
00000000
00000000
00000000
00000000
00000020
0000001f
00000020
00000020
00000020
00000020
00000000
00000001
00000000
00000001
00000000
00000020
00000000
00000000
00000020
00000020
0000001f
00000020
0000001f
00000020
00000000
00000000
00000000
00000000
00000000
00000001
00000001
00000020
00000000
00000020
00000020
0000001f
00000020
00000000
00000020
00000000
00000020
00000020
00000020
00000020
0000001f
00000020
00000000
00000001
00000020
00000020
00000020
00000020
00000020
00000020
00000000
00000000
00000020
00000020
0000001f
0000001f
00000020
00000000
00000000
00000000
00000000
0000001f
0000001f
00000020
00000020
00000020
00000020
00000001
00000000
00000020
00000000
0000001f
00000020
00000020
00000000
00000020
00000020
0000001f
00000020
00000020
00000020
00000000
00000001
00000000
00000020
00000000
00000020
00000000
00000020
00000020
00000000
00000000
00000000
00000000
00000000
00000000
00000001
00000001
00000000
00000000
00000000
00000020
00000020
00000000
00000020
00000020
00000000
00000020
00000000
00000000
00000000
00000020
00000000
00000001
00000000
00000000
00000001
00000000
00000000
00000020
00000000
00000020
00000000
00000000
00000000
00000020
00000020
00000020
00000020
00000000
00000001
00000001
00000000
00000000
00000000
00000000
00000000
00000020
00000000
00000020
00000000
00000000
00000020
00000020
00000000
00000020
00000001
00000000
00000000
00000000
00000020
00000000
00000000
00000001
00000001
00000000
00000000
00000000
00000020
00000020
00000020
00000020
00000000
00000020
00000000
00000000
00000000
00000001
00000000
00000001
00000000
00000020
00000020
00000020
00000000
00000020
0000001f
00000020
00000000
0000001f
00000020
00000020
00000020
00000020
00000000
00000000
00000020
00000001
00000020
00000000
00000000
0000001f
00000020
00000020
0000001f
0000001f
0000001e
0000001f
0000001f
00000020
00000020
00000020
00000020
00000001
00000000
00000000
00000020
00000020
0000001f
0000001f
0000001f
00000020
00000020
0000001f
0000001f
00000020
0000001f
00000020
00000000
00000000
00000000
00000000
00000000
00000000
00000020
00000000
00000000
00000001
00000000
00000000
00000000
00000020
00000020
00000020
00000000
00000020
00000000
00000020
00000000
00000000
00000000
00000001
00000000
00000000
00000001
00000000
00000020
00000000
00000001
00000000
00000000
00000020
00000020
00000000
00000001
00000000
00000000
00000000
00000000
00000000
00000001
00000000
00000001
00000001
00000000
00000000
00000000
00000000
00000001
00000001
00000000
00000000
00000000
00000020
00000000
00000020
00000020
0000001f
00000020
00000000
00000020
00000001
00000020
00000020
00000001
00000000
00000000
00000001
00000000
00000000
00000020
00000000
00000020
00000020
00000020
00000020
00000020
00000020
0000001f
00000020
00000000
00000000
00000000
00000000
00000020
0000001f
0000001f
00000020
00000020
00000020
00000020
00000000
0000001f
0000001f
00000020
00000020
00000020
00000000
00000020
00000000
00000020
0000001f
00000020
00000000
00000000
00000001
00000000
00000000
00000000
00000000
00000020
00000020
00000000
00000020
00000000
00000000
00000020
00000000
00000020
00000000
00000000
00000000
00000020
00000000
00000000
00000020
00000000
0000001f
00000000
00000001
00000000
00000000
00000001
00000000
00000020
00000001
00000000
00000000
00000000
00000000
00000020
00000000
00000001
00000001
00000000
00000020
00000000
00000000
00000000
00000000
00000001
00000000
00000001
00000001
00000000
00000001
00000001
00000000
00000000
00000020
00000000
00000001
00000000
0000001f
00000020
0000001f
00000000
00000001
00000000
00000000
00000020
00000020
00000000
00000020
00000020
00000000
00000000
00000000
00000001
00000020
00000000
00000020
00000001
00000000
00000001
00000000
00000001
00000000
00000020
00000000
00000020
00000001
00000020
00000020
00000020
00000000
00000020
00000000
00000020
00000000
00000000
00000001
00000000
00000000
00000020
0000001f
00000020
00000000
00000000
00000001
00000001
00000000
00000000
00000000
00000000
00000020
00000020
00000020
00000000
00000020
00000000
00000000
00000020
00000000
00000020
00000000
00000001
00000001
00000000
00000001
00000000
00000020
00000000
00000020
00000020
00000020
00000020
00000020
00000000
00000000
00000020
0000001f
00000000
00000020
00000000
00000000
00000000
00000000
00000020
00000020
00000000
00000000
00000020
00000000
00000020
00000001
00000020
00000020
00000020
00000020
00000000
00000001
00000020
00000001
00000020
00000001
00000000
00000020
00000000
00000020
00000020
00000000
00000020
00000020
00000000
00000020
00000000
00000000
00000000
00000000
00000001
00000001
00000000
00000000
00000020
00000000
00000020
00000020
00000020
00000020
00000000
00000020
00000020
00000001
00000001
00000000
00000000
00000000
00000000
00000000
00000001
00000000
00000000
00000020
00000020
00000000
00000020
00000020
00000001
00000020
00000000
00000000
00000001
00000001
00000000
00000000
00000001
00000000
00000000
00000000
00000020
00000020
00000020
00000020
00000000
00000020
00000000
00000020
00000001
00000020
00000020
00000000
00000001
00000000
00000000
00000000
00000020
00000020
00000000
00000000
00000000
00000000
00000001
00000000
00000000
00000000
00000000
00000000
00000001
00000001
00000000
00000001
0000001f
0000001f
00000020
00000020
00000000
00000000
00000020
00000000
0000001f
00000020
00000000
00000020
00000000
00000000
00000002
00000001
00000020
0000001f
00000000
00000020
00000020
00000000
00000000
00000020
00000000
00000020
00000000
00000000
00000000
00000000
00000001
00000000
00000020
00000020
00000020
00000000
00000020
00000020
00000020
00000000
00000001
00000020
00000020
00000020
00000020
00000001
00000000
00000001
00000020
00000020
00000000
00000001
00000000
00000000
00000001
00000000
00000020
00000020
00000020
00000020
00000020
00000000
00000000
00000001
00000020
00000000
00000000
00000001
00000000
00000000
00000000
00000000
00000000
00000020
00000001
00000001
00000000
00000000
00000001
00000001
00000000
00000020
00000000
00000000
00000000
00000001
00000001
00000000
00000001
00000000
00000020
00000000
00000001
00000001
00000000
00000001
00000020
00000020
00000020
00000000
00000000
00000001
00000000
00000001
00000020
00000000
00000001
00000000
00000000
00000000
00000001
00000000
00000020
00000000
0000001f
00000000
00000020
00000020
00000000
00000000
00000000
00000000
00000000
00000001
00000001
00000000
00000020
00000000
00000020
00000000
0000001f
0000001f
0000001f
00000020
00000020
00000020
00000020
00000020
00000000
00000000
00000000
00000020
00000020
00000000
00000020
00000020
00000020
0000001f
00000020
00000020
00000020
0000001f
00000020
0000001f
00000020
0000001f
00000020
00000020
00000000
00000020
00000020
00000000
00000020
00000000
00000000
00000000
00000020
0000001f
0000001f
0000001f
00000020
00000020
00000020
00000000
00000020
00000020
00000000
00000020
00000020
0000001f
00000000
0000001f
0000001f
00000020
0000001f
00000020
00000020
00000020
00000000
00000020
00000020
00000020
00000000
00000020
00000020
0000001f
00000020
00000000
0000001f
00000020
00000000
00000000
00000001
00000001
00000001
00000000
00000020
00000001
00000000
00000020
00000020
00000020
00000000
00000000
00000000
00000020
00000000
00000000
00000001
00000000
00000001
00000001
00000001
00000000
00000020
00000000
00000000
00000020
00000000
00000020
00000000
00000001
00000020
00000020
00000000
00000020
00000001
00000000
00000001
00000020
00000020
0000001f
00000000
0000001f
00000020
00000001
00000001
00000000
0000001f
00000020
00000020
00000020
00000000
00000000
00000000
00000001
00000020
00000000
00000020
00000000
00000000
00000001
00000001
00000020
0000001e
0000001f
00000000
00000000
00000020
00000000
00000001
00000000
00000020
0000001f
0000001f
00000000
00000000
00000000
00000001
00000020
00000020
00000020
0000001f
0000001f
00000020
00000020
00000000
00000000
00000020
0000001f
00000000
00000000
00000000
00000001
00000020
0000001f
0000001f
00000020
00000000
00000000
00000020
00000020
00000000
00000020
0000001f
00000020
00000000
00000000
00000000
00000020
00000020
00000020
00000020
00000020
00000000
00000000
00000000
00000001
00000000
00000001
00000020
00000000
00000020
00000000
00000020
00000020
00000020
00000000
00000000
00000020
00000000
00000020
00000000
00000000
00000001
00000000
00000020
00000020
00000020
00000000
00000000
00000000
00000020
00000020
00000020
00000000
00000020
00000000
00000020
00000020
00000020
00000000
00000020
00000000
00000000
00000000
00000000
00000001
00000000
00000000
00000000
00000000
00000000
00000000
00000000
00000000
00000020
00000000
00000020
0000001f
00000020
00000000
00000000
00000001
00000001
00000000
00000000
00000000
00000000
00000020
00000020
00000020
00000000
00000000
00000000
00000020
00000020
00000020
00000020
00000000
00000000
00000020
00000000
00000020
00000020
00000020
00000020
00000020
00000000
00000020
00000020
00000000
00000020
00000000
0000001f
00000020
0000001f
0000001f
00000020
0000001f
0000001f
00000020
00000020
0000001f
00000020
00000020
00000020
00000000
00000020
00000000
00000001
00000001
00000001
00000001
00000020
00000000
00000020
00000000
00000000
00000000
00000000
00000000
00000020
00000020
00000000
00000000
00000000
00000000
00000001
00000000
00000000
00000000
00000001
00000001
00000000
00000000
00000001
00000020
00000020
00000000
00000020
00000000
00000000
00000001
00000020
00000000
00000000
00000000
00000001
00000000
00000000
00000001
00000000
00000000
00000001
00000020
00000001
00000001
00000000
00000020
00000000
00000000
00000020
00000020
00000020
00000020
00000020
00000000
00000001
00000001
00000020
00000000
00000020
00000020
0000001f
00000020
00000020
00000000
0000001f
00000000
0000001f
0000001f
00000000
00000001
00000020
00000001
00000000
00000020
00000020
00000020
00000000
00000020
00000020
00000020
00000000
00000000
0000001e
0000001f
00000020
00000000
00000000
00000020
00000000
00000020
00000020
00000020
00000020
00000020
00000001
00000001
00000000
00000020
00000020
00000020
0000001f
00000020
00000000
00000000
00000020
00000020
00000000
00000020
00000000
00000000
00000001
00000000
00000000
00000020
00000000
00000000
00000000
00000000
00000020
00000020
00000020
00000000
00000000
00000020
00000001
00000000
00000000
00000020
00000020
00000000
00000000
00000001
00000000
00000001
00000000
00000000
00000000
00000000
00000020
00000020
00000000
00000020
00000020
00000000
00000000
00000000
00000000
00000000
00000001
00000000
00000020
0000001f
00000000
00000020
0000001f
00000020
00000020
00000000
00000020
00000000
00000000
00000020
00000001
00000000
00000001
00000000
0000001f
00000020
00000000
00000000
00000020
00000020
00000000
00000020
00000020
00000001
00000001
00000001
00000020
00000001
00000000
00000020
0000001f
00000020
00000020
00000000
0000001f
0000001f
00000020
00000000
00000000
00000020
00000020
00000000
00000020
00000001
00000020
00000020
0000001f
00000000
00000020
00000020
0000001f
00000020
0000001f
00000020
00000020
00000000
00000000
00000020
00000000
00000020
0000001f
0000001f
00000000
00000000
00000020
00000000
00000020
00000020
00000020
00000000
00000000
00000000
00000000
00000000
00000000
00000000
0000001f
00000020
00000000
00000020
00000000
00000000
00000020
00000000
00000020
00000020
0000001f
00000000
00000000
00000000
00000000
00000000
00000020
00000000
00000020
00000020
00000020
00000000
00000001
00000000
00000000
00000020
00000000
00000020
00000000
00000020
00000020
00000020
00000020
00000020
00000000
00000020
00000020
00000000
00000020
00000020
00000000
00000000
00000000
00000020
00000020
0000001f
00000000
00000000
00000020
00000000
00000000
00000000
00000020
00000000
00000000
00000000
00000000
00000000
00000000
00000020
00000000
00000020
00000000
00000000
00000020
00000020
00000020
00000000
00000000
00000000
00000000
00000000
00000000
00000000
00000020
00000020
0000001f
00000000
00000000
00000020
00000020
00000020
00000020
00000020
00000020
00000000
00000020
00000000
00000020
00000020
00000020
00000020
00000000
00000020
00000020
00000000
00000020
00000000
00000020
00000000
00000020
00000020
00000000
00000020
00000000
00000000
0000001f
0000001f
00000020
00000000
00000020
0000001f
00000000
00000000
0000001f
00000000
00000000
00000000
00000000
00000000
00000000
00000000
00000000
00000020
00000020
00000020
00000000
00000000
00000020
0000001f
00000020
00000000
00000020
00000000
00000020
00000020
00000020
00000000
00000000
00000020
00000020
00000000
00000020
00000000
00000020
00000020
00000020
00000000
00000000
00000000
00000020
00000020
00000020
00000020
00000020
00000020
00000020
00000000
00000020
00000020
00000020
00000020
00000000
00000000
00000020
00000020
00000000
00000020
00000020
00000020
00000020
00000020
00000000
00000000
00000000
00000020
00000000
00000000
00000020
00000020
00000000
00000000
00000000
00000000
00000000
00000000
00000000
00000020
00000000
00000020
00000020
00000020
00000020
00000020
00000000
00000020
00000000
00000020
00000000
00000000
00000000
00000000
00000000
00000020
00000000
00000020
00000020
00000000
00000020
00000000
00000020
00000020
00000000
00000020
00000020
00000000
00000020
00000000
00000020
00000000
0000001f
00000020
00000000
00000020
00000020
00000020
00000020
00000000
00000000
00000020
00000020
00000020
00000020
00000020
00000020
00000020
00000020
00000020
0000001f
00000000
00000000
0000001f
00000000
00000020
00000000
00000000
00000000
00000000
00000000
00000000
00000000
00000000
00000000
00000000
00000000
00000020
00000020
00000020
00000020
00000000
00000020
00000020
00000020
00000000
00000000
00000020
00000020
00000020
00000000
00000000
00000020
00000000
00000020
00000000
00000000
00000020
00000020
00000000
00000020
0000001f
00000000
00000020
00000000
0000001f
00000020
00000020
00000000
00000020
00000020
00000020
00000000
00000020
00000000
00000000
00000020
00000020
00000020
00000020
0000001f
00000000
00000020
00000000
00000020
00000000
00000000
00000020
00000000
00000000
00000000
00000020
00000001
00000001
00000000
00000001
00000000
00000000
00000000
00000000
00000020
00000000
00000000
00000000
00000020
00000000
00000020
00000000
00000001
00000000
00000020
00000020
00000000
00000020
00000000
00000000
00000000
00000000
00000000
00000020
00000000
00000020
0000001f
00000000
00000000
00000000
00000001
00000020
00000020
00000020
00000020
00000020
00000000
00000020
00000000
00000000
00000020
00000020
00000020
0000001f
00000020
00000001
00000000
00000020
00000020
00000020
00000020
00000000
00000020
00000001
00000000
0000001f
00000020
00000020
0000001f
0000001f
00000000
00000000
00000020
00000000
00000020
00000020
00000000
00000020
00000000
00000020
00000000
00000000
0000001f
00000020
00000020
0000001f
00000020
00000020
00000000
00000000
00000000
00000001
00000000
00000001
00000001
00000020
00000001
00000000
00000020
00000020
00000020
00000000
00000020
00000000
00000020
00000000
00000001
00000001
00000001
00000001
00000020
00000000
00000020
00000020
00000000
00000020
00000000
00000000
00000020
00000000
00000020
00000020
00000000
00000000
00000000
00000000
00000000
00000020
00000020
00000020
00000020
0000001f
00000000
00000001
00000000
00000020
00000000
00000000
00000020
00000001
00000020
00000000
00000000
00000020
00000020
00000000
0000001f
00000020
00000000
00000001
00000001
00000020
00000000
0000001f
00000020
00000020
00000020
00000001
00000000
00000001
00000000
00000020
0000001f
0000001f
00000020
00000000
00000020
00000020
00000000
00000020
00000000
00000020
00000000
00000000
00000020
00000020
00000001
0000001f
0000001f
00000020
00000020
00000000
00000000
00000020
00000000
00000000
00000000
00000000
00000000
00000020
00000001
00000000
00000000
00000020
0000001f
00000020
00000020
00000020
00000000
00000020
00000020
0000001f
00000020
00000020
00000000
00000020
0000001f
00000000
0000001f
00000020
00000000
0000001f
00000020
00000020
00000000
00000020
00000020
0000001f
0000001f
00000020
0000001f
00000020
00000020
00000020
00000020
00000020
00000000
00000020
00000000
00000020
00000000
00000020
00000000
00000000
00000000
00000020
00000020
00000020
00000020
00000020
00000000
00000020
00000020
00000000
00000000
00000020
00000020
00000020
00000000
00000020
00000020
00000000
00000020
0000001f
00000020
00000000
0000001f
0000001f
00000020
00000000
00000020
00000000
00000020
0000001f
00000000
00000020
00000020
00000020
00000000
00000000
0000001f
00000020
00000020
00000020
00000000
00000000
00000020
00000000
00000020
0000001f
00000020
00000020
0000001f
00000020
00000020
00000020
00000020
00000020
00000020
00000000
00000000
00000000
00000020
00000000
00000000
00000000
00000020
00000000
00000020
00000000
00000001
00000001
00000020
00000001
00000000
00000020
00000000
00000020
00000000
00000020
00000001
00000000
00000020
00000000
00000000
00000001
00000001
00000020
00000001
00000000
00000001
00000001
00000000
00000020
00000000
00000000
00000000
00000000
00000000
00000000
00000000
00000020
00000000
00000000
00000000
00000000
00000001
00000001
00000001
00000001
00000000
00000000
00000000
00000000
00000000
00000020
00000000
00000000
00000000
00000001
00000020
00000020
00000000
00000020
00000020
00000020
00000020
00000001
00000001
00000000
00000020
0000001f
0000001f
00000020
00000000
00000000
00000020
00000000
00000000
00000020
0000001f
0000001f
00000020
00000020
00000000
00000020
00000020
00000020
00000000
00000001
00000020
00000000
00000020
00000020
00000020
0000001f
00000020
0000001f
00000020
0000001f
00000020
00000000
00000000
00000001
00000000
00000000
00000020
00000000
0000001f
00000020
00000020
0000001f
0000001f
00000000
00000000
0000001f
00000020
00000020
00000020
00000000
00000000
00000000
00000020
00000020
0000001f
00000020
0000001f
0000001f
00000000
00000020
00000020
0000001f
0000001f
00000020
00000000
00000000
00000020
00000020
00000020
00000020
00000020
0000001f
0000001f
00000020
00000020
00000020
00000000
0000001f
00000000
00000020
00000020
00000000
00000020
00000000
00000000
00000020
00000020
0000001f
00000020
00000000
00000020
00000020
00000000
00000000
00000000
00000000
00000000
00000020
00000020
00000000
00000000
00000000
00000000
00000001
00000000
00000020
00000020
00000000
00000020
00000020
00000000
00000000
00000001
00000000
00000000
00000001
00000000
00000000
00000000
00000000
00000000
00000000
00000020
00000020
00000020
00000020
00000000
00000000
00000000
00000020
00000000
00000000
00000000
00000020
00000020
00000020
00000000
00000000
00000020
00000000
00000000
00000020
00000000
00000020
00000020
00000000
00000020
00000001
00000000
00000001
00000001
00000000
00000000
00000020
00000000
00000020
00000000
00000000
0000001f
00000000
00000000
00000020
0000001f
0000001f
00000000
00000000
00000001
00000020
00000000
00000000
00000020
00000020
00000000
00000020
00000020
00000020
00000000
00000020
00000020
0000001f
00000020
00000020
00000020
00000020
00000020
00000000
0000001f
0000001f
00000020
00000000
00000000
00000000
00000000
00000000
00000001
00000001
00000000
00000001
00000020
00000000
00000020
0000001f
0000001f
0000001f
00000020
00000020
00000000
00000000
00000020
00000020
00000000
00000000
00000000
00000000
00000020
00000020
00000000
0000001f
0000001f
00000020
00000000
00000020
00000000
00000000
00000001
00000001
00000000
00000000
00000020
00000001
00000000
00000000
00000000
00000020
0000001f
00000020
00000020
00000000
00000000
00000001
00000020
00000000
00000020
0000001f
00000000
00000000
00000000
00000020
00000001
00000001
00000020
00000020
00000020
00000000
00000001
00000001
00000000
00000000
00000000
00000020
00000000
00000001
00000000
00000001
00000000
00000020
00000020
00000020
00000020
0000001f
00000000
00000020
00000020
00000001
00000000
00000020
00000020
00000001
00000001
00000000
00000000
00000020
00000020
0000001f
00000020
0000001f
00000020
0000001f
00000000
00000000
00000000
00000000
00000000
00000020
00000020
00000020
00000000
0000001f
00000020
00000020
00000020
00000020
00000020
00000020
00000000
00000020
00000020
00000000
00000000
00000001
00000020
00000000
00000020
0000001f
0000001f
00000020
00000000
00000020
00000020
0000001f
00000020
00000020
00000020
00000020
00000000
00000020
00000020
0000001f
0000001f
0000001f
00000020
0000001f
00000020
00000000
00000000
00000020
00000000
00000020
00000020
0000001f
00000000
00000000
00000000
00000000
0000001f
00000020
00000020
00000020
00000020
00000000
00000000
00000020
00000000
00000020
00000001
00000000
00000020
00000001
00000000
00000001
00000001
00000020
00000000
00000020
00000020
00000000
00000001
00000000
00000020
00000001
00000001
00000001
00000001
00000020
00000001
00000001
00000000
00000000
00000020
00000020
00000020
00000020
00000000
00000020
0000001f
0000001f
00000020
00000020
0000001f
0000001f
0000001f
00000020
00000000
00000000
00000020
00000000
00000000
00000020
00000020
00000020
0000001f
0000001f
0000001f
0000001f
0000001e
0000001f
00000000
0000001f
00000020
0000001f
00000000
00000020
00000000
00000000
00000020
00000020
0000001f
0000001f
00000020
00000020
0000001f
00000020
00000000
00000000
00000020
00000020
00000000
00000020
00000001
00000000
0000001f
0000001f
00000000
00000020
00000020
00000000
00000000
00000020
00000000
00000000
00000000
00000000
00000000
00000000
00000000
00000000
00000020
00000020
00000020
00000000
00000000
00000020
00000020
00000020
00000000
00000020
00000001
00000000
00000000
00000000
00000000
00000000
00000020
00000000
00000001
00000000
00000000
00000000
00000000
00000000
00000001
00000020
00000000
00000000
00000001
00000000
00000001
00000000
00000001
00000001
00000001
00000001
00000001
00000000
00000000
00000000
00000000
00000020
00000020
0000001f
00000000
00000001
00000001
00000020
00000000
00000001
00000000
00000000
00000000
00000020
0000001f
0000001f
00000020
00000001
00000000
00000020
00000000
00000000
00000020
00000001
00000000
00000000
00000000
00000000
00000020
00000020
0000001f
00000000
00000020
00000000
00000000
00000020
00000000
00000020
0000001f
00000000
00000000
00000000
0000001f
00000020
00000020
0000001f
00000020
00000000
00000001
00000020
00000000
00000000
00000020
00000001
00000020
00000000
00000020
00000000
0000001f
00000020
00000020
00000020
00000020
00000020
00000020
00000020
00000000
00000000
00000001
00000001
00000000
00000020
00000000
00000020
00000020
00000000
00000000
00000000
00000020
00000020
00000000
0000001f
00000020
00000000
00000001
00000001
00000020
0000001f
00000020
00000000
00000020
00000020
00000000
00000000
00000000
00000001
00000020
0000001f
00000000
00000000
00000000
00000001
0000001f
00000000
00000000
00000020
00000000
00000001
00000000
00000020
00000000
00000000
00000000
00000000
00000000
00000000
00000001
00000000
00000000
0000001f
00000020
00000001
00000001
00000000
00000020
00000020
00000001
00000001
00000000
00000000
00000001
00000001
00000000
00000020
00000020
00000020
00000000
00000000
00000020
00000000
00000001
00000000
00000000
00000000
00000000
00000000
00000000
00000000
00000000
00000000
00000000
00000020
00000020
00000001
00000000
00000000
00000020
00000001
00000000
00000020
00000001
00000020
00000020
00000020
00000000
00000000
00000020
00000000
00000020
00000000
00000020
00000000
00000000
00000000
00000020
00000020
00000000
00000020
00000000
00000001
00000000
00000000
00000020
00000000
00000000
00000000
00000000
00000000
00000020
00000020
00000020
00000000
00000000
00000020
00000000
00000020
00000000
00000000
00000000
00000020
00000000
00000000
00000020
00000020
0000001f
00000000
00000020
0000001f
00000020
00000000
00000000
00000000
00000020
00000020
00000020
00000000
00000000
00000020
00000000
0000001f
00000000
00000000
00000020
00000000
00000020
00000020
00000000
0000001f
00000020
00000000
00000000
00000020
00000020
00000000
00000020
00000020
00000020
0000001f
00000000
00000020
00000000
00000000
00000000
00000000
00000020
00000020
00000020
00000020
00000000
00000020
00000000
00000000
00000020
00000020
00000000
00000020
00000020
00000020
00000000
00000020
00000000
0000001f
00000000
00000001
00000000
00000000
00000000
00000000
00000020
00000020
00000020
00000020
00000020
0000001f
00000020
00000000
00000000
00000020
00000000
00000020
00000020
0000001f
00000020
00000000
00000020
0000001f
0000001f
00000020
00000020
00000000
00000020
00000020
00000020
00000020
00000000
0000001f
00000020
00000020
00000000
00000000
00000020
00000020
00000020
00000020
0000001f
00000000
0000001f
00000000
00000020
00000000
00000020
00000020
00000020
00000020
00000000
00000020
00000020
00000000
00000020
00000020
00000020
00000020
00000020
00000020
00000020
00000000
00000020
0000001f
0000001f
00000000
00000020
00000000
00000020
00000020
0000001f
00000020
00000000
00000000
00000020
00000020
00000000
00000001
00000000
00000020
0000001f
00000000
00000020
00000000
00000020
00000020
00000000
00000020
00000020
00000000
00000000
00000020
00000001
00000000
00000020
00000000
00000000
00000000
00000020
00000000
00000020
00000000
00000020
00000000
00000020
00000020
00000000
00000000
00000020
00000000
00000000
00000020
00000020
00000020
0000001f
0000001f
00000000
00000000
00000020
00000020
00000000
00000000
00000020
00000000
00000020
00000020
00000020
00000000
00000000
00000000
00000020
00000020
00000020
00000020
00000000
00000000
00000020
00000000
00000000
00000020
00000020
00000020
00000000
00000020
00000000
00000000
0000001f
00000000
00000000
00000000
00000020
00000020
00000020
00000020
00000000
00000020
00000000
00000000
00000000
00000020
00000000
00000020
00000020
0000001f
00000020
00000000
00000020
0000001f
0000001f
0000001f
00000020
00000020
0000001f
00000020
00000000
00000000
00000020
00000000
00000000
00000020
00000000
00000020
00000020
00000020
00000020
00000020
00000020
00000020
00000020
00000000
00000020
00000000
00000000
00000000
00000020
0000001f
00000000
00000020
00000000
00000000
00000000
0000001f
0000001f
0000001f
0000001f
0000001f
00000000
00000020
00000020
00000000
00000000
00000020
00000020
00000020
00000000
00000001
00000000
00000020
00000020
00000020
0000001e
0000001f
00000000
00000020
00000020
00000000
00000020
00000000
00000020
00000000
00000000
00000001
00000001
00000020
0000001f
0000001e
0000001f
0000001f
00000020
00000020
00000000
00000000
00000001
00000000
00000000
00000000
00000000
00000000
00000001
00000000
00000020
0000001f
0000001f
0000001f
00000020
00000000
00000000
00000000
00000020
00000000
0000001f
00000020
00000001
00000020
00000020
00000000
00000000
00000000
00000020
00000020
00000001
00000020
00000020
00000000
00000000
00000000
00000020
00000020
00000020
00000000
00000000
00000020
00000020
00000020
00000020
00000000
00000020
0000001f
00000020
0000001f
00000000
00000000
00000020
00000020
00000000
00000000
00000020
00000020
00000000
00000020
00000000
00000020
00000000
00000020
0000001f
00000020
00000020
00000000
00000000
00000001
00000000
00000020
0000001f
00000020
00000020
0000001f
00000020
00000000
00000020
0000001f
0000001f
00000020
0000001f
00000000
00000020
00000000
00000000
00000020
0000001f
00000020
00000020
00000020
0000001f
00000020
00000020
00000020
00000020
0000001f
00000020
00000000
00000020
00000000
00000000
00000020
00000020
00000020
00000020
00000020
00000020
00000020
0000001f
0000001f
00000020
00000000
00000000
00000020
00000020
00000000
00000020
00000000
00000000
00000000
00000020
00000020
00000000
00000000
00000020
00000020
00000000
00000000
00000001
00000001
00000000
00000020
00000001
00000000
00000001
00000020
00000020
0000001f
00000000
00000020
00000020
00000000
00000020
00000000
00000020
00000000
00000020
00000000
00000000
00000001
00000000
00000001
00000000
00000000
00000000
00000000
00000000
00000020
00000020
00000001
00000000
00000001
00000000
00000020
00000000
00000000
00000020
00000001
00000000
00000000
00000020
00000020
00000000
00000001
00000020
00000001
00000001
00000001
00000001
00000001
00000001
00000020
00000000
00000000
00000020
00000001
00000000
00000020
00000020
00000001
00000000
00000020
00000001
00000000
00000000
00000001
00000000
00000001
00000000
00000001
00000020
00000020
0000001f
00000020
00000000
00000020
00000001
00000001
00000020
00000000
00000000
00000020
00000001
00000020
00000001
00000000
00000020
00000000
00000020
00000020
00000000
00000020
00000000
00000000
00000020
00000000
00000000
00000020
00000000
00000020
00000001
00000000
00000000
0000001f
00000020
00000000
00000000
00000020
00000000
00000020
00000020
00000000
00000020
00000000
00000020
00000000
00000001
00000000
00000020
0000001f
00000020
00000020
0000001f
00000020
00000000
00000000
00000020
0000001f
00000020
00000020
00000000
00000000
00000001
00000001
00000001
00000020
0000001f
0000001f
00000000
00000020
00000020
00000020
00000020
00000020
00000020
00000020
00000020
00000000
00000000
00000020
00000001
00000000
00000000
00000000
00000000
00000020
00000000
00000020
00000001
00000000
00000000
00000000
00000000
00000020
00000000
00000000
00000001
00000001
00000001
00000000
00000001
00000000
00000020
00000000
00000001
00000000
00000000
00000000
00000020
00000000
00000000
00000000
00000001
00000020
00000000
00000001
00000020
00000000
00000000
00000020
00000000
00000000
00000000
00000000
00000020
00000020
00000001
00000000
00000000
00000001
00000000
00000000
00000020
00000000
00000001
00000001
00000000
00000000
00000000
00000001
00000000
00000000
00000000
00000000
00000000
00000000
00000020
00000020
00000000
00000001
00000000
00000000
00000001
00000020
00000000
00000000
00000000
00000000
00000000
00000001
00000000
00000000
00000000
00000000
00000001
00000020
00000020
00000000
00000020
00000020
00000020
00000020
00000000
00000000
00000000
00000020
00000020
00000020
00000000
00000000
00000000
00000020
00000020
00000020
00000020
00000000
00000020
00000020
0000001f
00000020
00000020
0000001f
00000000
00000020
00000020
00000020
00000020
0000001f
00000000
0000001f
00000020
00000020
00000020
00000020
0000001f
0000001f
00000000
0000001f
00000000
00000020
00000020
00000020
00000000
00000020
00000000
00000020
00000020
00000000
00000000
00000020
00000000
00000000
00000000
00000020
00000020
00000000
00000020
00000020
00000020
00000020
00000020
00000000
00000020
00000000
00000000
00000000
00000020
00000020
00000020
00000020
00000020
00000000
00000000
00000020
00000000
00000020
00000020
00000020
00000020
00000000
00000000
00000000
00000000
00000020
00000020
00000020
00000020
00000020
0000001f
00000000
00000000
00000020
00000020
00000020
00000000
0000001f
00000020
0000001f
00000020
00000020
00000020
00000000
00000000
00000020
00000000
00000001
00000020
00000020
00000000
00000020
00000020
00000000
00000020
00000020
00000000
00000020
00000020
00000000
0000001f
00000020
00000000
00000001
00000000
00000000
00000000
00000020
00000000
00000020
00000000
00000020
00000020
00000000
00000000
00000000
00000000
00000000
00000000
00000001
00000000
00000020
00000020
00000020
00000020
00000020
00000000
00000020
00000000
00000000
00000000
00000020
00000000
00000000
00000001
00000000
0000001f
00000020
00000000
00000000
00000020
00000000
00000020
00000000
00000000
00000020
00000000
00000020
00000000
00000000
00000020
00000001
00000000
00000020
00000020
00000000
00000020
00000000
00000000
00000020
00000020
00000000
00000020
00000000
0000001f
00000000
00000020
00000000
0000001f
00000000
00000000
00000000
0000001f
00000000
00000000
00000020
00000020
00000020
0000001f
00000020
00000000
00000000
00000000
00000000
00000020
00000000
00000000
00000000
00000000
00000000
00000020
00000000
00000020
00000000
00000000
00000000
00000020
00000020
00000020
00000000
00000000
00000020
00000020
00000020
00000000
00000001
00000001
00000000
00000000
00000020
00000000
00000000
00000020
00000000
00000000
00000001
00000020
00000020
00000020
00000000
00000020
00000000
00000020
00000020
0000001f
00000000
00000000
00000020
00000000
00000000
00000000
00000000
00000020
00000000
00000020
0000001f
00000020
00000020
00000000
00000000
00000020
00000020
00000000
00000000
00000020
00000020
00000020
00000020
00000020
00000000
0000001f
0000001f
00000020
00000020
00000000
00000020
00000020
00000000
00000000
00000020
00000020
00000000
00000020
00000000
00000020
00000000
00000020
00000000
00000000
00000020
00000000
00000000
00000000
0000001f
00000000
00000000
00000000
00000000
00000001
00000000
00000000
00000000
00000020
00000000
00000000
00000000
00000020
00000020
00000020
00000000
00000000
00000000
00000000
00000000
00000020
00000020
0000001f
00000000
00000000
00000000
00000020
00000000
00000020
0000001f
00000020
00000020
00000000
00000000
00000001
00000000
00000000
00000000
00000000
00000000
00000020
00000000
00000000
00000020
00000020
00000020
00000000
00000000
00000001
00000000
00000020
00000020
00000001
00000000
00000000
00000020
00000020
00000020
00000020
00000000
00000000
00000020
00000020
00000000
00000000
00000000
00000000
00000000
00000000
00000000
00000020
0000001f
00000000
00000000
00000020
00000020
00000020
00000020
00000000
00000000
00000000
00000000
00000020
00000000
00000001
00000020
0000001f
00000020
0000001f
00000000
00000000
00000000
00000020
00000000
00000020
00000020
00000020
00000020
00000001
00000001
00000001
00000020
00000020
0000001f
00000020
00000000
00000001
00000000
00000001
00000000
00000020
00000000
00000000
00000001
00000020
00000000
00000000
00000020
0000001f
00000020
00000000
00000001
00000001
00000001
00000001
00000000
00000020
00000001
00000000
00000020
00000000
00000000
00000020
0000001f
00000000
00000000
00000020
00000001
00000001
00000001
00000001
00000000
00000000
00000000
00000000
00000000
00000001
00000001
00000020
0000001f
00000020
0000001f
00000020
00000020
00000000
00000000
00000020
00000020
00000020
00000001
00000000
00000001
00000001
0000001f
0000001f
0000001f
00000001
00000020
00000000
00000020
00000000
00000000
00000000
00000020
00000020
00000000
00000001
00000000
00000020
00000020
00000020
0000001f
00000000
00000020
00000020
00000020
00000000
00000020
00000020
00000000
00000020
00000000
00000000
00000000
00000020
00000000
0000001f
00000020
00000020
00000020
00000000
0000001f
00000020
00000020
00000020
00000000
00000001
00000020
00000020
00000000
00000000
00000020
00000000
00000020
00000000
00000020
00000020
00000020
00000000
00000020
00000001
00000000
00000020
00000020
00000020
00000020
00000000
00000020
00000000
00000020
00000000
00000020
00000001
00000001
00000001
00000000
00000000
00000001
00000000
00000020
00000001
00000020
00000000
00000000
00000000
0000001f
00000020
00000000
00000001
00000001
00000001
00000000
00000001
00000000
00000000
00000000
0000001f
00000020
00000020
00000000
00000020
00000020
00000020
00000020
00000000
00000000
00000000
00000020
00000020
0000001f
00000020
00000000
00000020
00000000
00000000
00000020
00000000
00000020
00000020
0000001f
00000000
00000020
00000020
0000001f
00000020
0000001f
00000000
0000001f
00000020
00000000
00000020
00000020
00000020
00000020
00000020
00000020
00000020
00000020
00000020
00000020
00000020
00000020
00000020
0000001f
00000000
0000001f
00000000
00000001
00000020
00000020
00000020
00000020
00000020
00000000
00000000
0000001f
00000020
00000020
00000020
00000020
00000000
00000020
00000000
00000020
00000000
00000000
00000020
0000001f
00000020
0000001f
0000001f
0000001f
00000020
00000000
00000020
00000020
00000020
00000000
00000000
00000001
00000001
00000000
0000001f
00000020
0000001f
00000020
0000001f
00000020
00000020
00000001
00000000
00000000
00000020
00000020
00000000
00000000
00000000
00000000
0000001f
00000000
0000001f
0000001f
00000000
00000001
00000000
00000020
00000020
00000000
00000020
00000020
00000020
0000001f
00000020
00000000
00000020
00000020
00000020
00000020
00000000
00000000
00000000
00000000
00000000
00000001
00000000
00000020
00000020
00000020
00000020
00000020
00000020
00000000
00000020
00000000
00000000
00000000
00000020
00000001
00000001
00000000
00000001
00000020
00000000
0000001f
00000020
0000001f
00000020
00000000
00000020
00000020
0000001f
00000000
00000000
00000000
00000000
00000000
00000020
00000020
00000000
00000020
00000020
00000020
0000001f
00000020
00000020
00000020
0000001f
0000001f
00000020
00000000
00000001
00000000
00000020
0000001f
0000001f
0000001f
0000001f
00000020
00000000
00000000
0000001f
00000020
0000001f
00000020
00000020
00000020
00000000
00000000
00000020
00000020
00000020
0000001f
00000020
00000020
00000001
00000000
00000000
0000001f
00000000
00000020
00000020
00000000
00000020
00000000
00000000
00000020
00000020
00000020
00000020
00000020
00000001
00000020
00000000
00000000
00000000
00000000
0000001f
00000020
00000020
00000020
00000000
00000000
00000020
00000000
00000001
00000020
00000020
00000000
00000000
00000000
00000020
00000020
00000020
00000020
00000000
00000000
00000020
00000020
00000001
00000000
00000020
0000001f
00000000
00000020
00000000
00000020
00000020
00000000
00000000
00000000
00000020
0000001f
00000000
00000000
00000000
00000020
00000000
00000020
00000020
00000020
00000020
00000020
00000000
00000020
00000000
00000000
00000001
00000001
00000000
00000020
00000020
00000000
00000020
00000020
00000000
00000020
0000001f
00000000
00000001
00000001
00000000
00000000
00000000
00000000
0000001f
0000001f
00000000
00000001
00000020
00000000
00000020
00000000
00000020
00000020
00000000
00000000
00000001
00000000
00000000
00000020
00000000
00000020
00000000
00000000
00000000
00000000
00000020
0000001f
00000020
00000020
00000000
00000000
00000020
00000000
00000020
00000001
00000000
00000020
00000000
00000000
00000020
00000020
00000020
00000020
00000000
00000000
00000020
00000000
00000000
00000000
00000020
00000000
00000000
00000000
00000020
00000020
00000020
00000020
00000020
00000020
00000020
00000000
00000000
00000020
00000020
00000000
00000020
00000001
00000020
00000001
00000000
00000020
0000001f
00000020
00000020
00000000
00000000
00000020
00000000
00000000
00000020
