00000000
00000001
00000002
00000003
00000004
00000005
00000006
00000007
00000008
00000009
0000000a
0000000b
0000000c
0000000d
0000000e
0000000f
00000010
00000011
00000012
00000013
00000014
00000015
00000016
00000017
00000018
00000019
0000001a
0000001b
0000001c
0000001d
0000001e
0000001f
00000020
00000021
00000022
00000023
00000024
00000025
00000026
00000027
00000028
00000029
0000002a
0000002b
0000002c
0000002d
0000002e
0000002f
00000030
00000031
00000032
00000033
00000034
00000035
00000036
00000037
00000038
00000039
0000003a
0000003b
0000003c
0000003d
0000003e
0000003f
00000040
00000041
00000042
00000043
00000044
00000045
00000046
00000047
00000048
00000049
0000004a
0000004b
0000004c
0000004d
0000004e
0000004f
00000050
00000051
00000052
00000053
00000054
00000055
00000056
00000057
00000058
00000059
0000005a
0000005b
0000005c
0000005d
0000005e
0000005f
00000060
00000061
00000062
00000063
00000064
00000065
00000066
00000067
00000068
00000069
0000006a
0000006b
0000006c
0000006d
0000006e
0000006f
00000070
00000071
00000072
00000073
00000074
00000075
00000076
00000077
00000078
00000079
0000007a
0000007b
0000007c
0000007d
0000007e
0000007f
00000080
00000081
00000082
00000083
00000084
00000085
00000086
00000087
00000088
00000089
0000008a
0000008b
0000008c
0000008d
0000008e
0000008f
00000090
00000091
00000092
00000093
00000094
00000095
00000096
00000097
00000098
00000099
0000009a
0000009b
0000009c
0000009d
0000009e
0000009f
000000a0
000000a1
000000a2
000000a3
000000a4
000000a5
000000a6
000000a7
000000a8
000000a9
000000aa
000000ab
000000ac
000000ad
000000ae
000000af
000000b0
000000b1
000000b2
000000b3
000000b4
000000b5
000000b6
000000b7
000000b8
000000b9
000000ba
000000bb
000000bc
000000bd
000000be
000000bf
000000c0
000000c1
000000c2
000000c3
000000c4
000000c5
000000c6
000000c7
000000c8
000000c9
000000ca
000000cb
000000cc
000000cd
000000ce
000000cf
000000d0
000000d1
000000d2
000000d3
000000d4
000000d5
000000d6
000000d7
000000d8
000000d9
000000da
000000db
000000dc
000000dd
000000de
000000df
000000e0
000000e1
000000e2
000000e3
000000e4
000000e5
000000e6
000000e7
000000e8
000000e9
000000ea
000000eb
000000ec
000000ed
000000ee
000000ef
000000f0
000000f1
000000f2
000000f3
000000f4
000000f5
000000f6
000000f7
000000f8
000000f9
000000fa
000000fb
000000fc
000000fd
000000fe
000000ff
00001000
00001001
00001002
00001003
00001004
00001005
00001006
00001007
00001008
00001009
0000100a
0000100b
0000100c
0000100d
0000100e
0000100f
00001010
00001011
00001012
00001013
00001014
00001015
00001016
00001017
00001018
00001019
0000101a
0000101b
0000101c
0000101d
0000101e
0000101f
00001020
00001021
00001022
00001023
00001024
00001025
00001026
00001027
00001028
00001029
0000102a
0000102b
0000102c
0000102d
0000102e
0000102f
00001030
00001031
00001032
00001033
00001034
00001035
00001036
00001037
00001038
00001039
0000103a
0000103b
0000103c
0000103d
0000103e
0000103f
00001040
00001041
00001042
00001043
00001044
00001045
00001046
00001047
00001048
00001049
0000104a
0000104b
0000104c
0000104d
0000104e
0000104f
00001050
00001051
00001052
00001053
00001054
00001055
00001056
00001057
00001058
00001059
0000105a
0000105b
0000105c
0000105d
0000105e
0000105f
00001060
00001061
00001062
00001063
00001064
00001065
00001066
00001067
00001068
00001069
0000106a
0000106b
0000106c
0000106d
0000106e
0000106f
00001070
00001071
00001072
00001073
00001074
00001075
00001076
00001077
00001078
00001079
0000107a
0000107b
0000107c
0000107d
0000107e
0000107f
00001080
00001081
00001082
00001083
00001084
00001085
00001086
00001087
00001088
00001089
0000108a
0000108b
0000108c
0000108d
0000108e
0000108f
00001090
00001091
00001092
00001093
00001094
00001095
00001096
00001097
00001098
00001099
0000109a
0000109b
0000109c
0000109d
0000109e
0000109f
000010a0
000010a1
000010a2
000010a3
000010a4
000010a5
000010a6
000010a7
000010a8
000010a9
000010aa
000010ab
000010ac
000010ad
000010ae
000010af
000010b0
000010b1
000010b2
000010b3
000010b4
000010b5
000010b6
000010b7
000010b8
000010b9
000010ba
000010bb
000010bc
000010bd
000010be
000010bf
000010c0
000010c1
000010c2
000010c3
000010c4
000010c5
000010c6
000010c7
000010c8
000010c9
000010ca
000010cb
000010cc
000010cd
000010ce
000010cf
000010d0
000010d1
000010d2
000010d3
000010d4
000010d5
000010d6
000010d7
000010d8
000010d9
000010da
000010db
000010dc
000010dd
000010de
000010df
000010e0
000010e1
000010e2
000010e3
000010e4
000010e5
000010e6
000010e7
000010e8
000010e9
000010ea
000010eb
000010ec
000010ed
000010ee
000010ef
000010f0
000010f1
000010f2
000010f3
000010f4
000010f5
000010f6
000010f7
000010f8
000010f9
000010fa
000010fb
000010fc
000010fd
000010fe
000010ff
00002000
00002001
00002002
00002003
00002004
00002005
00002006
00002007
00002008
00002009
0000200a
0000200b
0000200c
0000200d
0000200e
0000200f
00002010
00002011
00002012
00002013
00002014
00002015
00002016
00002017
00002018
00002019
0000201a
0000201b
0000201c
0000201d
0000201e
0000201f
00002020
00002021
00002022
00002023
00002024
00002025
00002026
00002027
00002028
00002029
0000202a
0000202b
0000202c
0000202d
0000202e
0000202f
00002030
00002031
00002032
00002033
00002034
00002035
00002036
00002037
00002038
00002039
0000203a
0000203b
0000203c
0000203d
0000203e
0000203f
00002040
00002041
00002042
00002043
00002044
00002045
00002046
00002047
00002048
00002049
0000204a
0000204b
0000204c
0000204d
0000204e
0000204f
00002050
00002051
00002052
00002053
00002054
00002055
00002056
00002057
00002058
00002059
0000205a
0000205b
0000205c
0000205d
0000205e
0000205f
00002060
00002061
00002062
00002063
00002064
00002065
00002066
00002067
00002068
00002069
0000206a
0000206b
0000206c
0000206d
0000206e
0000206f
00002070
00002071
00002072
00002073
00002074
00002075
00002076
00002077
00002078
00002079
0000207a
0000207b
0000207c
0000207d
0000207e
0000207f
00002080
00002081
00002082
00002083
00002084
00002085
00002086
00002087
00002088
00002089
0000208a
0000208b
0000208c
0000208d
0000208e
0000208f
00002090
00002091
00002092
00002093
00002094
00002095
00002096
00002097
00002098
00002099
0000209a
0000209b
0000209c
0000209d
0000209e
0000209f
000020a0
000020a1
000020a2
000020a3
000020a4
000020a5
000020a6
000020a7
000020a8
000020a9
000020aa
000020ab
000020ac
000020ad
000020ae
000020af
000020b0
000020b1
000020b2
000020b3
000020b4
000020b5
000020b6
000020b7
000020b8
000020b9
000020ba
000020bb
000020bc
000020bd
000020be
000020bf
000020c0
000020c1
000020c2
000020c3
000020c4
000020c5
000020c6
000020c7
000020c8
000020c9
000020ca
000020cb
000020cc
000020cd
000020ce
000020cf
000020d0
000020d1
000020d2
000020d3
000020d4
000020d5
000020d6
000020d7
000020d8
000020d9
000020da
000020db
000020dc
000020dd
000020de
000020df
000020e0
000020e1
000020e2
000020e3
000020e4
000020e5
000020e6
000020e7
000020e8
000020e9
000020ea
000020eb
000020ec
000020ed
000020ee
000020ef
000020f0
000020f1
000020f2
000020f3
000020f4
000020f5
000020f6
000020f7
000020f8
000020f9
000020fa
000020fb
000020fc
000020fd
000020fe
000020ff
00003000
00003001
00003002
00003003
00003004
00003005
00003006
00003007
00003008
00003009
0000300a
0000300b
0000300c
0000300d
0000300e
0000300f
00003010
00003011
00003012
00003013
00003014
00003015
00003016
00003017
00003018
00003019
0000301a
0000301b
0000301c
0000301d
0000301e
0000301f
00003020
00003021
00003022
00003023
00003024
00003025
00003026
00003027
00003028
00003029
0000302a
0000302b
0000302c
0000302d
0000302e
0000302f
00003030
00003031
00003032
00003033
00003034
00003035
00003036
00003037
00003038
00003039
0000303a
0000303b
0000303c
0000303d
0000303e
0000303f
00003040
00003041
00003042
00003043
00003044
00003045
00003046
00003047
00003048
00003049
0000304a
0000304b
0000304c
0000304d
0000304e
0000304f
00003050
00003051
00003052
00003053
00003054
00003055
00003056
00003057
00003058
00003059
0000305a
0000305b
0000305c
0000305d
0000305e
0000305f
00003060
00003061
00003062
00003063
00003064
00003065
00003066
00003067
00003068
00003069
0000306a
0000306b
0000306c
0000306d
0000306e
0000306f
00003070
00003071
00003072
00003073
00003074
00003075
00003076
00003077
00003078
00003079
0000307a
0000307b
0000307c
0000307d
0000307e
0000307f
00003080
00003081
00003082
00003083
00003084
00003085
00003086
00003087
00003088
00003089
0000308a
0000308b
0000308c
0000308d
0000308e
0000308f
00003090
00003091
00003092
00003093
00003094
00003095
00003096
00003097
00003098
00003099
0000309a
0000309b
0000309c
0000309d
0000309e
0000309f
000030a0
000030a1
000030a2
000030a3
000030a4
000030a5
000030a6
000030a7
000030a8
000030a9
000030aa
000030ab
000030ac
000030ad
000030ae
000030af
000030b0
000030b1
000030b2
000030b3
000030b4
000030b5
000030b6
000030b7
000030b8
000030b9
000030ba
000030bb
000030bc
000030bd
000030be
000030bf
000030c0
000030c1
000030c2
000030c3
000030c4
000030c5
000030c6
000030c7
000030c8
000030c9
000030ca
000030cb
000030cc
000030cd
000030ce
000030cf
000030d0
000030d1
000030d2
000030d3
000030d4
000030d5
000030d6
000030d7
000030d8
000030d9
000030da
000030db
000030dc
000030dd
000030de
000030df
000030e0
000030e1
000030e2
000030e3
000030e4
000030e5
000030e6
000030e7
000030e8
000030e9
000030ea
000030eb
000030ec
000030ed
000030ee
000030ef
000030f0
000030f1
000030f2
000030f3
000030f4
000030f5
000030f6
000030f7
000030f8
000030f9
000030fa
000030fb
000030fc
000030fd
000030fe
000030ff
00004000
00004001
00004002
00004003
00004004
00004005
00004006
00004007
00004008
00004009
0000400a
0000400b
0000400c
0000400d
0000400e
0000400f
00004010
00004011
00004012
00004013
00004014
00004015
00004016
00004017
00004018
00004019
0000401a
0000401b
0000401c
0000401d
0000401e
0000401f
00004020
00004021
00004022
00004023
00004024
00004025
00004026
00004027
00004028
00004029
0000402a
0000402b
0000402c
0000402d
0000402e
0000402f
00004030
00004031
00004032
00004033
00004034
00004035
00004036
00004037
00004038
00004039
0000403a
0000403b
0000403c
0000403d
0000403e
0000403f
00004040
00004041
00004042
00004043
00004044
00004045
00004046
00004047
00004048
00004049
0000404a
0000404b
0000404c
0000404d
0000404e
0000404f
00004050
00004051
00004052
00004053
00004054
00004055
00004056
00004057
00004058
00004059
0000405a
0000405b
0000405c
0000405d
0000405e
0000405f
00004060
00004061
00004062
00004063
00004064
00004065
00004066
00004067
00004068
00004069
0000406a
0000406b
0000406c
0000406d
0000406e
0000406f
00004070
00004071
00004072
00004073
00004074
00004075
00004076
00004077
00004078
00004079
0000407a
0000407b
0000407c
0000407d
0000407e
0000407f
00004080
00004081
00004082
00004083
00004084
00004085
00004086
00004087
00004088
00004089
0000408a
0000408b
0000408c
0000408d
0000408e
0000408f
00004090
00004091
00004092
00004093
00004094
00004095
00004096
00004097
00004098
00004099
0000409a
0000409b
0000409c
0000409d
0000409e
0000409f
000040a0
000040a1
000040a2
000040a3
000040a4
000040a5
000040a6
000040a7
000040a8
000040a9
000040aa
000040ab
000040ac
000040ad
000040ae
000040af
000040b0
000040b1
000040b2
000040b3
000040b4
000040b5
000040b6
000040b7
000040b8
000040b9
000040ba
000040bb
000040bc
000040bd
000040be
000040bf
000040c0
000040c1
000040c2
000040c3
000040c4
000040c5
000040c6
000040c7
000040c8
000040c9
000040ca
000040cb
000040cc
000040cd
000040ce
000040cf
000040d0
000040d1
000040d2
000040d3
000040d4
000040d5
000040d6
000040d7
000040d8
000040d9
000040da
000040db
000040dc
000040dd
000040de
000040df
000040e0
000040e1
000040e2
000040e3
000040e4
000040e5
000040e6
000040e7
000040e8
000040e9
000040ea
000040eb
000040ec
000040ed
000040ee
000040ef
000040f0
000040f1
000040f2
000040f3
000040f4
000040f5
000040f6
000040f7
000040f8
000040f9
000040fa
000040fb
000040fc
000040fd
000040fe
000040ff
00005000
00005001
00005002
00005003
00005004
00005005
00005006
00005007
00005008
00005009
0000500a
0000500b
0000500c
0000500d
0000500e
0000500f
00005010
00005011
00005012
00005013
00005014
00005015
00005016
00005017
00005018
00005019
0000501a
0000501b
0000501c
0000501d
0000501e
0000501f
00005020
00005021
00005022
00005023
00005024
00005025
00005026
00005027
00005028
00005029
0000502a
0000502b
0000502c
0000502d
0000502e
0000502f
00005030
00005031
00005032
00005033
00005034
00005035
00005036
00005037
00005038
00005039
0000503a
0000503b
0000503c
0000503d
0000503e
0000503f
00005040
00005041
00005042
00005043
00005044
00005045
00005046
00005047
00005048
00005049
0000504a
0000504b
0000504c
0000504d
0000504e
0000504f
00005050
00005051
00005052
00005053
00005054
00005055
00005056
00005057
00005058
00005059
0000505a
0000505b
0000505c
0000505d
0000505e
0000505f
00005060
00005061
00005062
00005063
00005064
00005065
00005066
00005067
00005068
00005069
0000506a
0000506b
0000506c
0000506d
0000506e
0000506f
00005070
00005071
00005072
00005073
00005074
00005075
00005076
00005077
00005078
00005079
0000507a
0000507b
0000507c
0000507d
0000507e
0000507f
00005080
00005081
00005082
00005083
00005084
00005085
00005086
00005087
00005088
00005089
0000508a
0000508b
0000508c
0000508d
0000508e
0000508f
00005090
00005091
00005092
00005093
00005094
00005095
00005096
00005097
00005098
00005099
0000509a
0000509b
0000509c
0000509d
0000509e
0000509f
000050a0
000050a1
000050a2
000050a3
000050a4
000050a5
000050a6
000050a7
000050a8
000050a9
000050aa
000050ab
000050ac
000050ad
000050ae
000050af
000050b0
000050b1
000050b2
000050b3
000050b4
000050b5
000050b6
000050b7
000050b8
000050b9
000050ba
000050bb
000050bc
000050bd
000050be
000050bf
000050c0
000050c1
000050c2
000050c3
000050c4
000050c5
000050c6
000050c7
000050c8
000050c9
000050ca
000050cb
000050cc
000050cd
000050ce
000050cf
000050d0
000050d1
000050d2
000050d3
000050d4
000050d5
000050d6
000050d7
000050d8
000050d9
000050da
000050db
000050dc
000050dd
000050de
000050df
000050e0
000050e1
000050e2
000050e3
000050e4
000050e5
000050e6
000050e7
000050e8
000050e9
000050ea
000050eb
000050ec
000050ed
000050ee
000050ef
000050f0
000050f1
000050f2
000050f3
000050f4
000050f5
000050f6
000050f7
000050f8
000050f9
000050fa
000050fb
000050fc
000050fd
000050fe
000050ff
00006000
00006001
00006002
00006003
00006004
00006005
00006006
00006007
00006008
00006009
0000600a
0000600b
0000600c
0000600d
0000600e
0000600f
00006010
00006011
00006012
00006013
00006014
00006015
00006016
00006017
00006018
00006019
0000601a
0000601b
0000601c
0000601d
0000601e
0000601f
00006020
00006021
00006022
00006023
00006024
00006025
00006026
00006027
00006028
00006029
0000602a
0000602b
0000602c
0000602d
0000602e
0000602f
00006030
00006031
00006032
00006033
00006034
00006035
00006036
00006037
00006038
00006039
0000603a
0000603b
0000603c
0000603d
0000603e
0000603f
00006040
00006041
00006042
00006043
00006044
00006045
00006046
00006047
00006048
00006049
0000604a
0000604b
0000604c
0000604d
0000604e
0000604f
00006050
00006051
00006052
00006053
00006054
00006055
00006056
00006057
00006058
00006059
0000605a
0000605b
0000605c
0000605d
0000605e
0000605f
00006060
00006061
00006062
00006063
00006064
00006065
00006066
00006067
00006068
00006069
0000606a
0000606b
0000606c
0000606d
0000606e
0000606f
00006070
00006071
00006072
00006073
00006074
00006075
00006076
00006077
00006078
00006079
0000607a
0000607b
0000607c
0000607d
0000607e
0000607f
00006080
00006081
00006082
00006083
00006084
00006085
00006086
00006087
00006088
00006089
0000608a
0000608b
0000608c
0000608d
0000608e
0000608f
00006090
00006091
00006092
00006093
00006094
00006095
00006096
00006097
00006098
00006099
0000609a
0000609b
0000609c
0000609d
0000609e
0000609f
000060a0
000060a1
000060a2
000060a3
000060a4
000060a5
000060a6
000060a7
000060a8
000060a9
000060aa
000060ab
000060ac
000060ad
000060ae
000060af
000060b0
000060b1
000060b2
000060b3
000060b4
000060b5
000060b6
000060b7
000060b8
000060b9
000060ba
000060bb
000060bc
000060bd
000060be
000060bf
000060c0
000060c1
000060c2
000060c3
000060c4
000060c5
000060c6
000060c7
000060c8
000060c9
000060ca
000060cb
000060cc
000060cd
000060ce
000060cf
000060d0
000060d1
000060d2
000060d3
000060d4
000060d5
000060d6
000060d7
000060d8
000060d9
000060da
000060db
000060dc
000060dd
000060de
000060df
000060e0
000060e1
000060e2
000060e3
000060e4
000060e5
000060e6
000060e7
000060e8
000060e9
000060ea
000060eb
000060ec
000060ed
000060ee
000060ef
000060f0
000060f1
000060f2
000060f3
000060f4
000060f5
000060f6
000060f7
000060f8
000060f9
000060fa
000060fb
000060fc
000060fd
000060fe
000060ff
00007000
00007001
00007002
00007003
00007004
00007005
00007006
00007007
00007008
00007009
0000700a
0000700b
0000700c
0000700d
0000700e
0000700f
00007010
00007011
00007012
00007013
00007014
00007015
00007016
00007017
00007018
00007019
0000701a
0000701b
0000701c
0000701d
0000701e
0000701f
00007020
00007021
00007022
00007023
00007024
00007025
00007026
00007027
00007028
00007029
0000702a
0000702b
0000702c
0000702d
0000702e
0000702f
00007030
00007031
00007032
00007033
00007034
00007035
00007036
00007037
00007038
00007039
0000703a
0000703b
0000703c
0000703d
0000703e
0000703f
00007040
00007041
00007042
00007043
00007044
00007045
00007046
00007047
00007048
00007049
0000704a
0000704b
0000704c
0000704d
0000704e
0000704f
00007050
00007051
00007052
00007053
00007054
00007055
00007056
00007057
00007058
00007059
0000705a
0000705b
0000705c
0000705d
0000705e
0000705f
00007060
00007061
00007062
00007063
00007064
00007065
00007066
00007067
00007068
00007069
0000706a
0000706b
0000706c
0000706d
0000706e
0000706f
00007070
00007071
00007072
00007073
00007074
00007075
00007076
00007077
00007078
00007079
0000707a
0000707b
0000707c
0000707d
0000707e
0000707f
00007080
00007081
00007082
00007083
00007084
00007085
00007086
00007087
00007088
00007089
0000708a
0000708b
0000708c
0000708d
0000708e
0000708f
00007090
00007091
00007092
00007093
00007094
00007095
00007096
00007097
00007098
00007099
0000709a
0000709b
0000709c
0000709d
0000709e
0000709f
000070a0
000070a1
000070a2
000070a3
000070a4
000070a5
000070a6
000070a7
000070a8
000070a9
000070aa
000070ab
000070ac
000070ad
000070ae
000070af
000070b0
000070b1
000070b2
000070b3
000070b4
000070b5
000070b6
000070b7
000070b8
000070b9
000070ba
000070bb
000070bc
000070bd
000070be
000070bf
000070c0
000070c1
000070c2
000070c3
000070c4
000070c5
000070c6
000070c7
000070c8
000070c9
000070ca
000070cb
000070cc
000070cd
000070ce
000070cf
000070d0
000070d1
000070d2
000070d3
000070d4
000070d5
000070d6
000070d7
000070d8
000070d9
000070da
000070db
000070dc
000070dd
000070de
000070df
000070e0
000070e1
000070e2
000070e3
000070e4
000070e5
000070e6
000070e7
000070e8
000070e9
000070ea
000070eb
000070ec
000070ed
000070ee
000070ef
000070f0
000070f1
000070f2
000070f3
000070f4
000070f5
000070f6
000070f7
000070f8
000070f9
000070fa
000070fb
000070fc
000070fd
000070fe
000070ff
00008000
00008001
00008002
00008003
00008004
00008005
00008006
00008007
00008008
00008009
0000800a
0000800b
0000800c
0000800d
0000800e
0000800f
00008010
00008011
00008012
00008013
00008014
00008015
00008016
00008017
00008018
00008019
0000801a
0000801b
0000801c
0000801d
0000801e
0000801f
00008020
00008021
00008022
00008023
00008024
00008025
00008026
00008027
00008028
00008029
0000802a
0000802b
0000802c
0000802d
0000802e
0000802f
00008030
00008031
00008032
00008033
00008034
00008035
00008036
00008037
00008038
00008039
0000803a
0000803b
0000803c
0000803d
0000803e
0000803f
00008040
00008041
00008042
00008043
00008044
00008045
00008046
00008047
00008048
00008049
0000804a
0000804b
0000804c
0000804d
0000804e
0000804f
00008050
00008051
00008052
00008053
00008054
00008055
00008056
00008057
00008058
00008059
0000805a
0000805b
0000805c
0000805d
0000805e
0000805f
00008060
00008061
00008062
00008063
00008064
00008065
00008066
00008067
00008068
00008069
0000806a
0000806b
0000806c
0000806d
0000806e
0000806f
00008070
00008071
00008072
00008073
00008074
00008075
00008076
00008077
00008078
00008079
0000807a
0000807b
0000807c
0000807d
0000807e
0000807f
00008080
00008081
00008082
00008083
00008084
00008085
00008086
00008087
00008088
00008089
0000808a
0000808b
0000808c
0000808d
0000808e
0000808f
00008090
00008091
00008092
00008093
00008094
00008095
00008096
00008097
00008098
00008099
0000809a
0000809b
0000809c
0000809d
0000809e
0000809f
000080a0
000080a1
000080a2
000080a3
000080a4
000080a5
000080a6
000080a7
000080a8
000080a9
000080aa
000080ab
000080ac
000080ad
000080ae
000080af
000080b0
000080b1
000080b2
000080b3
000080b4
000080b5
000080b6
000080b7
000080b8
000080b9
000080ba
000080bb
000080bc
000080bd
000080be
000080bf
000080c0
000080c1
000080c2
000080c3
000080c4
000080c5
000080c6
000080c7
000080c8
000080c9
000080ca
000080cb
000080cc
000080cd
000080ce
000080cf
000080d0
000080d1
000080d2
000080d3
000080d4
000080d5
000080d6
000080d7
000080d8
000080d9
000080da
000080db
000080dc
000080dd
000080de
000080df
000080e0
000080e1
000080e2
000080e3
000080e4
000080e5
000080e6
000080e7
000080e8
000080e9
000080ea
000080eb
000080ec
000080ed
000080ee
000080ef
000080f0
000080f1
000080f2
000080f3
000080f4
000080f5
000080f6
000080f7
000080f8
000080f9
000080fa
000080fb
000080fc
000080fd
000080fe
000080ff
00009000
00009001
00009002
00009003
00009004
00009005
00009006
00009007
00009008
00009009
0000900a
0000900b
0000900c
0000900d
0000900e
0000900f
00009010
00009011
00009012
00009013
00009014
00009015
00009016
00009017
00009018
00009019
0000901a
0000901b
0000901c
0000901d
0000901e
0000901f
00009020
00009021
00009022
00009023
00009024
00009025
00009026
00009027
00009028
00009029
0000902a
0000902b
0000902c
0000902d
0000902e
0000902f
00009030
00009031
00009032
00009033
00009034
00009035
00009036
00009037
00009038
00009039
0000903a
0000903b
0000903c
0000903d
0000903e
0000903f
00009040
00009041
00009042
00009043
00009044
00009045
00009046
00009047
00009048
00009049
0000904a
0000904b
0000904c
0000904d
0000904e
0000904f
00009050
00009051
00009052
00009053
00009054
00009055
00009056
00009057
00009058
00009059
0000905a
0000905b
0000905c
0000905d
0000905e
0000905f
00009060
00009061
00009062
00009063
00009064
00009065
00009066
00009067
00009068
00009069
0000906a
0000906b
0000906c
0000906d
0000906e
0000906f
00009070
00009071
00009072
00009073
00009074
00009075
00009076
00009077
00009078
00009079
0000907a
0000907b
0000907c
0000907d
0000907e
0000907f
00009080
00009081
00009082
00009083
00009084
00009085
00009086
00009087
00009088
00009089
0000908a
0000908b
0000908c
0000908d
0000908e
0000908f
00009090
00009091
00009092
00009093
00009094
00009095
00009096
00009097
00009098
00009099
0000909a
0000909b
0000909c
0000909d
0000909e
0000909f
000090a0
000090a1
000090a2
000090a3
000090a4
000090a5
000090a6
000090a7
000090a8
000090a9
000090aa
000090ab
000090ac
000090ad
000090ae
000090af
000090b0
000090b1
000090b2
000090b3
000090b4
000090b5
000090b6
000090b7
000090b8
000090b9
000090ba
000090bb
000090bc
000090bd
000090be
000090bf
000090c0
000090c1
000090c2
000090c3
000090c4
000090c5
000090c6
000090c7
000090c8
000090c9
000090ca
000090cb
000090cc
000090cd
000090ce
000090cf
000090d0
000090d1
000090d2
000090d3
000090d4
000090d5
000090d6
000090d7
000090d8
000090d9
000090da
000090db
000090dc
000090dd
000090de
000090df
000090e0
000090e1
000090e2
000090e3
000090e4
000090e5
000090e6
000090e7
000090e8
000090e9
000090ea
000090eb
000090ec
000090ed
000090ee
000090ef
000090f0
000090f1
000090f2
000090f3
000090f4
000090f5
000090f6
000090f7
000090f8
000090f9
000090fa
000090fb
000090fc
000090fd
000090fe
000090ff
0000a000
0000a001
0000a002
0000a003
0000a004
0000a005
0000a006
0000a007
0000a008
0000a009
0000a00a
0000a00b
0000a00c
0000a00d
0000a00e
0000a00f
0000a010
0000a011
0000a012
0000a013
0000a014
0000a015
0000a016
0000a017
0000a018
0000a019
0000a01a
0000a01b
0000a01c
0000a01d
0000a01e
0000a01f
0000a020
0000a021
0000a022
0000a023
0000a024
0000a025
0000a026
0000a027
0000a028
0000a029
0000a02a
0000a02b
0000a02c
0000a02d
0000a02e
0000a02f
0000a030
0000a031
0000a032
0000a033
0000a034
0000a035
0000a036
0000a037
0000a038
0000a039
0000a03a
0000a03b
0000a03c
0000a03d
0000a03e
0000a03f
0000a040
0000a041
0000a042
0000a043
0000a044
0000a045
0000a046
0000a047
0000a048
0000a049
0000a04a
0000a04b
0000a04c
0000a04d
0000a04e
0000a04f
0000a050
0000a051
0000a052
0000a053
0000a054
0000a055
0000a056
0000a057
0000a058
0000a059
0000a05a
0000a05b
0000a05c
0000a05d
0000a05e
0000a05f
0000a060
0000a061
0000a062
0000a063
0000a064
0000a065
0000a066
0000a067
0000a068
0000a069
0000a06a
0000a06b
0000a06c
0000a06d
0000a06e
0000a06f
0000a070
0000a071
0000a072
0000a073
0000a074
0000a075
0000a076
0000a077
0000a078
0000a079
0000a07a
0000a07b
0000a07c
0000a07d
0000a07e
0000a07f
0000a080
0000a081
0000a082
0000a083
0000a084
0000a085
0000a086
0000a087
0000a088
0000a089
0000a08a
0000a08b
0000a08c
0000a08d
0000a08e
0000a08f
0000a090
0000a091
0000a092
0000a093
0000a094
0000a095
0000a096
0000a097
0000a098
0000a099
0000a09a
0000a09b
0000a09c
0000a09d
0000a09e
0000a09f
0000a0a0
0000a0a1
0000a0a2
0000a0a3
0000a0a4
0000a0a5
0000a0a6
0000a0a7
0000a0a8
0000a0a9
0000a0aa
0000a0ab
0000a0ac
0000a0ad
0000a0ae
0000a0af
0000a0b0
0000a0b1
0000a0b2
0000a0b3
0000a0b4
0000a0b5
0000a0b6
0000a0b7
0000a0b8
0000a0b9
0000a0ba
0000a0bb
0000a0bc
0000a0bd
0000a0be
0000a0bf
0000a0c0
0000a0c1
0000a0c2
0000a0c3
0000a0c4
0000a0c5
0000a0c6
0000a0c7
0000a0c8
0000a0c9
0000a0ca
0000a0cb
0000a0cc
0000a0cd
0000a0ce
0000a0cf
0000a0d0
0000a0d1
0000a0d2
0000a0d3
0000a0d4
0000a0d5
0000a0d6
0000a0d7
0000a0d8
0000a0d9
0000a0da
0000a0db
0000a0dc
0000a0dd
0000a0de
0000a0df
0000a0e0
0000a0e1
0000a0e2
0000a0e3
0000a0e4
0000a0e5
0000a0e6
0000a0e7
0000a0e8
0000a0e9
0000a0ea
0000a0eb
0000a0ec
0000a0ed
0000a0ee
0000a0ef
0000a0f0
0000a0f1
0000a0f2
0000a0f3
0000a0f4
0000a0f5
0000a0f6
0000a0f7
0000a0f8
0000a0f9
0000a0fa
0000a0fb
0000a0fc
0000a0fd
0000a0fe
0000a0ff
0000b000
0000b001
0000b002
0000b003
0000b004
0000b005
0000b006
0000b007
0000b008
0000b009
0000b00a
0000b00b
0000b00c
0000b00d
0000b00e
0000b00f
0000b010
0000b011
0000b012
0000b013
0000b014
0000b015
0000b016
0000b017
0000b018
0000b019
0000b01a
0000b01b
0000b01c
0000b01d
0000b01e
0000b01f
0000b020
0000b021
0000b022
0000b023
0000b024
0000b025
0000b026
0000b027
0000b028
0000b029
0000b02a
0000b02b
0000b02c
0000b02d
0000b02e
0000b02f
0000b030
0000b031
0000b032
0000b033
0000b034
0000b035
0000b036
0000b037
0000b038
0000b039
0000b03a
0000b03b
0000b03c
0000b03d
0000b03e
0000b03f
0000b040
0000b041
0000b042
0000b043
0000b044
0000b045
0000b046
0000b047
0000b048
0000b049
0000b04a
0000b04b
0000b04c
0000b04d
0000b04e
0000b04f
0000b050
0000b051
0000b052
0000b053
0000b054
0000b055
0000b056
0000b057
0000b058
0000b059
0000b05a
0000b05b
0000b05c
0000b05d
0000b05e
0000b05f
0000b060
0000b061
0000b062
0000b063
0000b064
0000b065
0000b066
0000b067
0000b068
0000b069
0000b06a
0000b06b
0000b06c
0000b06d
0000b06e
0000b06f
0000b070
0000b071
0000b072
0000b073
0000b074
0000b075
0000b076
0000b077
0000b078
0000b079
0000b07a
0000b07b
0000b07c
0000b07d
0000b07e
0000b07f
0000b080
0000b081
0000b082
0000b083
0000b084
0000b085
0000b086
0000b087
0000b088
0000b089
0000b08a
0000b08b
0000b08c
0000b08d
0000b08e
0000b08f
0000b090
0000b091
0000b092
0000b093
0000b094
0000b095
0000b096
0000b097
0000b098
0000b099
0000b09a
0000b09b
0000b09c
0000b09d
0000b09e
0000b09f
0000b0a0
0000b0a1
0000b0a2
0000b0a3
0000b0a4
0000b0a5
0000b0a6
0000b0a7
0000b0a8
0000b0a9
0000b0aa
0000b0ab
0000b0ac
0000b0ad
0000b0ae
0000b0af
0000b0b0
0000b0b1
0000b0b2
0000b0b3
0000b0b4
0000b0b5
0000b0b6
0000b0b7
0000b0b8
0000b0b9
0000b0ba
0000b0bb
0000b0bc
0000b0bd
0000b0be
0000b0bf
0000b0c0
0000b0c1
0000b0c2
0000b0c3
0000b0c4
0000b0c5
0000b0c6
0000b0c7
0000b0c8
0000b0c9
0000b0ca
0000b0cb
0000b0cc
0000b0cd
0000b0ce
0000b0cf
0000b0d0
0000b0d1
0000b0d2
0000b0d3
0000b0d4
0000b0d5
0000b0d6
0000b0d7
0000b0d8
0000b0d9
0000b0da
0000b0db
0000b0dc
0000b0dd
0000b0de
0000b0df
0000b0e0
0000b0e1
0000b0e2
0000b0e3
0000b0e4
0000b0e5
0000b0e6
0000b0e7
0000b0e8
0000b0e9
0000b0ea
0000b0eb
0000b0ec
0000b0ed
0000b0ee
0000b0ef
0000b0f0
0000b0f1
0000b0f2
0000b0f3
0000b0f4
0000b0f5
0000b0f6
0000b0f7
0000b0f8
0000b0f9
0000b0fa
0000b0fb
0000b0fc
0000b0fd
0000b0fe
0000b0ff
0000c000
0000c001
0000c002
0000c003
0000c004
0000c005
0000c006
0000c007
0000c008
0000c009
0000c00a
0000c00b
0000c00c
0000c00d
0000c00e
0000c00f
0000c010
0000c011
0000c012
0000c013
0000c014
0000c015
0000c016
0000c017
0000c018
0000c019
0000c01a
0000c01b
0000c01c
0000c01d
0000c01e
0000c01f
0000c020
0000c021
0000c022
0000c023
0000c024
0000c025
0000c026
0000c027
0000c028
0000c029
0000c02a
0000c02b
0000c02c
0000c02d
0000c02e
0000c02f
0000c030
0000c031
0000c032
0000c033
0000c034
0000c035
0000c036
0000c037
0000c038
0000c039
0000c03a
0000c03b
0000c03c
0000c03d
0000c03e
0000c03f
0000c040
0000c041
0000c042
0000c043
0000c044
0000c045
0000c046
0000c047
0000c048
0000c049
0000c04a
0000c04b
0000c04c
0000c04d
0000c04e
0000c04f
0000c050
0000c051
0000c052
0000c053
0000c054
0000c055
0000c056
0000c057
0000c058
0000c059
0000c05a
0000c05b
0000c05c
0000c05d
0000c05e
0000c05f
0000c060
0000c061
0000c062
0000c063
0000c064
0000c065
0000c066
0000c067
0000c068
0000c069
0000c06a
0000c06b
0000c06c
0000c06d
0000c06e
0000c06f
0000c070
0000c071
0000c072
0000c073
0000c074
0000c075
0000c076
0000c077
0000c078
0000c079
0000c07a
0000c07b
0000c07c
0000c07d
0000c07e
0000c07f
0000c080
0000c081
0000c082
0000c083
0000c084
0000c085
0000c086
0000c087
0000c088
0000c089
0000c08a
0000c08b
0000c08c
0000c08d
0000c08e
0000c08f
0000c090
0000c091
0000c092
0000c093
0000c094
0000c095
0000c096
0000c097
0000c098
0000c099
0000c09a
0000c09b
0000c09c
0000c09d
0000c09e
0000c09f
0000c0a0
0000c0a1
0000c0a2
0000c0a3
0000c0a4
0000c0a5
0000c0a6
0000c0a7
0000c0a8
0000c0a9
0000c0aa
0000c0ab
0000c0ac
0000c0ad
0000c0ae
0000c0af
0000c0b0
0000c0b1
0000c0b2
0000c0b3
0000c0b4
0000c0b5
0000c0b6
0000c0b7
0000c0b8
0000c0b9
0000c0ba
0000c0bb
0000c0bc
0000c0bd
0000c0be
0000c0bf
0000c0c0
0000c0c1
0000c0c2
0000c0c3
0000c0c4
0000c0c5
0000c0c6
0000c0c7
0000c0c8
0000c0c9
0000c0ca
0000c0cb
0000c0cc
0000c0cd
0000c0ce
0000c0cf
0000c0d0
0000c0d1
0000c0d2
0000c0d3
0000c0d4
0000c0d5
0000c0d6
0000c0d7
0000c0d8
0000c0d9
0000c0da
0000c0db
0000c0dc
0000c0dd
0000c0de
0000c0df
0000c0e0
0000c0e1
0000c0e2
0000c0e3
0000c0e4
0000c0e5
0000c0e6
0000c0e7
0000c0e8
0000c0e9
0000c0ea
0000c0eb
0000c0ec
0000c0ed
0000c0ee
0000c0ef
0000c0f0
0000c0f1
0000c0f2
0000c0f3
0000c0f4
0000c0f5
0000c0f6
0000c0f7
0000c0f8
0000c0f9
0000c0fa
0000c0fb
0000c0fc
0000c0fd
0000c0fe
0000c0ff
0000d000
0000d001
0000d002
0000d003
0000d004
0000d005
0000d006
0000d007
0000d008
0000d009
0000d00a
0000d00b
0000d00c
0000d00d
0000d00e
0000d00f
0000d010
0000d011
0000d012
0000d013
0000d014
0000d015
0000d016
0000d017
0000d018
0000d019
0000d01a
0000d01b
0000d01c
0000d01d
0000d01e
0000d01f
0000d020
0000d021
0000d022
0000d023
0000d024
0000d025
0000d026
0000d027
0000d028
0000d029
0000d02a
0000d02b
0000d02c
0000d02d
0000d02e
0000d02f
0000d030
0000d031
0000d032
0000d033
0000d034
0000d035
0000d036
0000d037
0000d038
0000d039
0000d03a
0000d03b
0000d03c
0000d03d
0000d03e
0000d03f
0000d040
0000d041
0000d042
0000d043
0000d044
0000d045
0000d046
0000d047
0000d048
0000d049
0000d04a
0000d04b
0000d04c
0000d04d
0000d04e
0000d04f
0000d050
0000d051
0000d052
0000d053
0000d054
0000d055
0000d056
0000d057
0000d058
0000d059
0000d05a
0000d05b
0000d05c
0000d05d
0000d05e
0000d05f
0000d060
0000d061
0000d062
0000d063
0000d064
0000d065
0000d066
0000d067
0000d068
0000d069
0000d06a
0000d06b
0000d06c
0000d06d
0000d06e
0000d06f
0000d070
0000d071
0000d072
0000d073
0000d074
0000d075
0000d076
0000d077
0000d078
0000d079
0000d07a
0000d07b
0000d07c
0000d07d
0000d07e
0000d07f
0000d080
0000d081
0000d082
0000d083
0000d084
0000d085
0000d086
0000d087
0000d088
0000d089
0000d08a
0000d08b
0000d08c
0000d08d
0000d08e
0000d08f
0000d090
0000d091
0000d092
0000d093
0000d094
0000d095
0000d096
0000d097
0000d098
0000d099
0000d09a
0000d09b
0000d09c
0000d09d
0000d09e
0000d09f
0000d0a0
0000d0a1
0000d0a2
0000d0a3
0000d0a4
0000d0a5
0000d0a6
0000d0a7
0000d0a8
0000d0a9
0000d0aa
0000d0ab
0000d0ac
0000d0ad
0000d0ae
0000d0af
0000d0b0
0000d0b1
0000d0b2
0000d0b3
0000d0b4
0000d0b5
0000d0b6
0000d0b7
0000d0b8
0000d0b9
0000d0ba
0000d0bb
0000d0bc
0000d0bd
0000d0be
0000d0bf
0000d0c0
0000d0c1
0000d0c2
0000d0c3
0000d0c4
0000d0c5
0000d0c6
0000d0c7
0000d0c8
0000d0c9
0000d0ca
0000d0cb
0000d0cc
0000d0cd
0000d0ce
0000d0cf
0000d0d0
0000d0d1
0000d0d2
0000d0d3
0000d0d4
0000d0d5
0000d0d6
0000d0d7
0000d0d8
0000d0d9
0000d0da
0000d0db
0000d0dc
0000d0dd
0000d0de
0000d0df
0000d0e0
0000d0e1
0000d0e2
0000d0e3
0000d0e4
0000d0e5
0000d0e6
0000d0e7
0000d0e8
0000d0e9
0000d0ea
0000d0eb
0000d0ec
0000d0ed
0000d0ee
0000d0ef
0000d0f0
0000d0f1
0000d0f2
0000d0f3
0000d0f4
0000d0f5
0000d0f6
0000d0f7
0000d0f8
0000d0f9
0000d0fa
0000d0fb
0000d0fc
0000d0fd
0000d0fe
0000d0ff
0000e000
0000e001
0000e002
0000e003
0000e004
0000e005
0000e006
0000e007
0000e008
0000e009
0000e00a
0000e00b
0000e00c
0000e00d
0000e00e
0000e00f
0000e010
0000e011
0000e012
0000e013
0000e014
0000e015
0000e016
0000e017
0000e018
0000e019
0000e01a
0000e01b
0000e01c
0000e01d
0000e01e
0000e01f
0000e020
0000e021
0000e022
0000e023
0000e024
0000e025
0000e026
0000e027
0000e028
0000e029
0000e02a
0000e02b
0000e02c
0000e02d
0000e02e
0000e02f
0000e030
0000e031
0000e032
0000e033
0000e034
0000e035
0000e036
0000e037
0000e038
0000e039
0000e03a
0000e03b
0000e03c
0000e03d
0000e03e
0000e03f
0000e040
0000e041
0000e042
0000e043
0000e044
0000e045
0000e046
0000e047
0000e048
0000e049
0000e04a
0000e04b
0000e04c
0000e04d
0000e04e
0000e04f
0000e050
0000e051
0000e052
0000e053
0000e054
0000e055
0000e056
0000e057
0000e058
0000e059
0000e05a
0000e05b
0000e05c
0000e05d
0000e05e
0000e05f
0000e060
0000e061
0000e062
0000e063
0000e064
0000e065
0000e066
0000e067
0000e068
0000e069
0000e06a
0000e06b
0000e06c
0000e06d
0000e06e
0000e06f
0000e070
0000e071
0000e072
0000e073
0000e074
0000e075
0000e076
0000e077
0000e078
0000e079
0000e07a
0000e07b
0000e07c
0000e07d
0000e07e
0000e07f
0000e080
0000e081
0000e082
0000e083
0000e084
0000e085
0000e086
0000e087
0000e088
0000e089
0000e08a
0000e08b
0000e08c
0000e08d
0000e08e
0000e08f
0000e090
0000e091
0000e092
0000e093
0000e094
0000e095
0000e096
0000e097
0000e098
0000e099
0000e09a
0000e09b
0000e09c
0000e09d
0000e09e
0000e09f
0000e0a0
0000e0a1
0000e0a2
0000e0a3
0000e0a4
0000e0a5
0000e0a6
0000e0a7
0000e0a8
0000e0a9
0000e0aa
0000e0ab
0000e0ac
0000e0ad
0000e0ae
0000e0af
0000e0b0
0000e0b1
0000e0b2
0000e0b3
0000e0b4
0000e0b5
0000e0b6
0000e0b7
0000e0b8
0000e0b9
0000e0ba
0000e0bb
0000e0bc
0000e0bd
0000e0be
0000e0bf
0000e0c0
0000e0c1
0000e0c2
0000e0c3
0000e0c4
0000e0c5
0000e0c6
0000e0c7
0000e0c8
0000e0c9
0000e0ca
0000e0cb
0000e0cc
0000e0cd
0000e0ce
0000e0cf
0000e0d0
0000e0d1
0000e0d2
0000e0d3
0000e0d4
0000e0d5
0000e0d6
0000e0d7
0000e0d8
0000e0d9
0000e0da
0000e0db
0000e0dc
0000e0dd
0000e0de
0000e0df
0000e0e0
0000e0e1
0000e0e2
0000e0e3
0000e0e4
0000e0e5
0000e0e6
0000e0e7
0000e0e8
0000e0e9
0000e0ea
0000e0eb
0000e0ec
0000e0ed
0000e0ee
0000e0ef
0000e0f0
0000e0f1
0000e0f2
0000e0f3
0000e0f4
0000e0f5
0000e0f6
0000e0f7
0000e0f8
0000e0f9
0000e0fa
0000e0fb
0000e0fc
0000e0fd
0000e0fe
0000e0ff
0000f000
0000f001
0000f002
0000f003
0000f004
0000f005
0000f006
0000f007
0000f008
0000f009
0000f00a
0000f00b
0000f00c
0000f00d
0000f00e
0000f00f
0000f010
0000f011
0000f012
0000f013
0000f014
0000f015
0000f016
0000f017
0000f018
0000f019
0000f01a
0000f01b
0000f01c
0000f01d
0000f01e
0000f01f
0000f020
0000f021
0000f022
0000f023
0000f024
0000f025
0000f026
0000f027
0000f028
0000f029
0000f02a
0000f02b
0000f02c
0000f02d
0000f02e
0000f02f
0000f030
0000f031
0000f032
0000f033
0000f034
0000f035
0000f036
0000f037
0000f038
0000f039
0000f03a
0000f03b
0000f03c
0000f03d
0000f03e
0000f03f
0000f040
0000f041
0000f042
0000f043
0000f044
0000f045
0000f046
0000f047
0000f048
0000f049
0000f04a
0000f04b
0000f04c
0000f04d
0000f04e
0000f04f
0000f050
0000f051
0000f052
0000f053
0000f054
0000f055
0000f056
0000f057
0000f058
0000f059
0000f05a
0000f05b
0000f05c
0000f05d
0000f05e
0000f05f
0000f060
0000f061
0000f062
0000f063
0000f064
0000f065
0000f066
0000f067
0000f068
0000f069
0000f06a
0000f06b
0000f06c
0000f06d
0000f06e
0000f06f
0000f070
0000f071
0000f072
0000f073
0000f074
0000f075
0000f076
0000f077
0000f078
0000f079
0000f07a
0000f07b
0000f07c
0000f07d
0000f07e
0000f07f
0000f080
0000f081
0000f082
0000f083
0000f084
0000f085
0000f086
0000f087
0000f088
0000f089
0000f08a
0000f08b
0000f08c
0000f08d
0000f08e
0000f08f
0000f090
0000f091
0000f092
0000f093
0000f094
0000f095
0000f096
0000f097
0000f098
0000f099
0000f09a
0000f09b
0000f09c
0000f09d
0000f09e
0000f09f
0000f0a0
0000f0a1
0000f0a2
0000f0a3
0000f0a4
0000f0a5
0000f0a6
0000f0a7
0000f0a8
0000f0a9
0000f0aa
0000f0ab
0000f0ac
0000f0ad
0000f0ae
0000f0af
0000f0b0
0000f0b1
0000f0b2
0000f0b3
0000f0b4
0000f0b5
0000f0b6
0000f0b7
0000f0b8
0000f0b9
0000f0ba
0000f0bb
0000f0bc
0000f0bd
0000f0be
0000f0bf
0000f0c0
0000f0c1
0000f0c2
0000f0c3
0000f0c4
0000f0c5
0000f0c6
0000f0c7
0000f0c8
0000f0c9
0000f0ca
0000f0cb
0000f0cc
0000f0cd
0000f0ce
0000f0cf
0000f0d0
0000f0d1
0000f0d2
0000f0d3
0000f0d4
0000f0d5
0000f0d6
0000f0d7
0000f0d8
0000f0d9
0000f0da
0000f0db
0000f0dc
0000f0dd
0000f0de
0000f0df
0000f0e0
0000f0e1
0000f0e2
0000f0e3
0000f0e4
0000f0e5
0000f0e6
0000f0e7
0000f0e8
0000f0e9
0000f0ea
0000f0eb
0000f0ec
0000f0ed
0000f0ee
0000f0ef
0000f0f0
0000f0f1
0000f0f2
0000f0f3
0000f0f4
0000f0f5
0000f0f6
0000f0f7
0000f0f8
0000f0f9
0000f0fa
0000f0fb
0000f0fc
0000f0fd
0000f0fe
0000f0ff
00010000
00010001
00010002
00010003
00010004
00010005
00010006
00010007
00010008
00010009
0001000a
0001000b
0001000c
0001000d
0001000e
0001000f
00010010
00010011
00010012
00010013
00010014
00010015
00010016
00010017
00010018
00010019
0001001a
0001001b
0001001c
0001001d
0001001e
0001001f
00010020
00010021
00010022
00010023
00010024
00010025
00010026
00010027
00010028
00010029
0001002a
0001002b
0001002c
0001002d
0001002e
0001002f
00010030
00010031
00010032
00010033
00010034
00010035
00010036
00010037
00010038
00010039
0001003a
0001003b
0001003c
0001003d
0001003e
0001003f
00010040
00010041
00010042
00010043
00010044
00010045
00010046
00010047
00010048
00010049
0001004a
0001004b
0001004c
0001004d
0001004e
0001004f
00010050
00010051
00010052
00010053
00010054
00010055
00010056
00010057
00010058
00010059
0001005a
0001005b
0001005c
0001005d
0001005e
0001005f
00010060
00010061
00010062
00010063
00010064
00010065
00010066
00010067
00010068
00010069
0001006a
0001006b
0001006c
0001006d
0001006e
0001006f
00010070
00010071
00010072
00010073
00010074
00010075
00010076
00010077
00010078
00010079
0001007a
0001007b
0001007c
0001007d
0001007e
0001007f
00010080
00010081
00010082
00010083
00010084
00010085
00010086
00010087
00010088
00010089
0001008a
0001008b
0001008c
0001008d
0001008e
0001008f
00010090
00010091
00010092
00010093
00010094
00010095
00010096
00010097
00010098
00010099
0001009a
0001009b
0001009c
0001009d
0001009e
0001009f
000100a0
000100a1
000100a2
000100a3
000100a4
000100a5
000100a6
000100a7
000100a8
000100a9
000100aa
000100ab
000100ac
000100ad
000100ae
000100af
000100b0
000100b1
000100b2
000100b3
000100b4
000100b5
000100b6
000100b7
000100b8
000100b9
000100ba
000100bb
000100bc
000100bd
000100be
000100bf
000100c0
000100c1
000100c2
000100c3
000100c4
000100c5
000100c6
000100c7
000100c8
000100c9
000100ca
000100cb
000100cc
000100cd
000100ce
000100cf
000100d0
000100d1
000100d2
000100d3
000100d4
000100d5
000100d6
000100d7
000100d8
000100d9
000100da
000100db
000100dc
000100dd
000100de
000100df
000100e0
000100e1
000100e2
000100e3
000100e4
000100e5
000100e6
000100e7
000100e8
000100e9
000100ea
000100eb
000100ec
000100ed
000100ee
000100ef
000100f0
000100f1
000100f2
000100f3
000100f4
000100f5
000100f6
000100f7
000100f8
000100f9
000100fa
000100fb
000100fc
000100fd
000100fe
000100ff
00011000
00011001
00011002
00011003
00011004
00011005
00011006
00011007
00011008
00011009
0001100a
0001100b
0001100c
0001100d
0001100e
0001100f
00011010
00011011
00011012
00011013
00011014
00011015
00011016
00011017
00011018
00011019
0001101a
0001101b
0001101c
0001101d
0001101e
0001101f
00011020
00011021
00011022
00011023
00011024
00011025
00011026
00011027
00011028
00011029
0001102a
0001102b
0001102c
0001102d
0001102e
0001102f
00011030
00011031
00011032
00011033
00011034
00011035
00011036
00011037
00011038
00011039
0001103a
0001103b
0001103c
0001103d
0001103e
0001103f
00011040
00011041
00011042
00011043
00011044
00011045
00011046
00011047
00011048
00011049
0001104a
0001104b
0001104c
0001104d
0001104e
0001104f
00011050
00011051
00011052
00011053
00011054
00011055
00011056
00011057
00011058
00011059
0001105a
0001105b
0001105c
0001105d
0001105e
0001105f
00011060
00011061
00011062
00011063
00011064
00011065
00011066
00011067
00011068
00011069
0001106a
0001106b
0001106c
0001106d
0001106e
0001106f
00011070
00011071
00011072
00011073
00011074
00011075
00011076
00011077
00011078
00011079
0001107a
0001107b
0001107c
0001107d
0001107e
0001107f
00011080
00011081
00011082
00011083
00011084
00011085
00011086
00011087
00011088
00011089
0001108a
0001108b
0001108c
0001108d
0001108e
0001108f
00011090
00011091
00011092
00011093
00011094
00011095
00011096
00011097
00011098
00011099
0001109a
0001109b
0001109c
0001109d
0001109e
0001109f
000110a0
000110a1
000110a2
000110a3
000110a4
000110a5
000110a6
000110a7
000110a8
000110a9
000110aa
000110ab
000110ac
000110ad
000110ae
000110af
000110b0
000110b1
000110b2
000110b3
000110b4
000110b5
000110b6
000110b7
000110b8
000110b9
000110ba
000110bb
000110bc
000110bd
000110be
000110bf
000110c0
000110c1
000110c2
000110c3
000110c4
000110c5
000110c6
000110c7
000110c8
000110c9
000110ca
000110cb
000110cc
000110cd
000110ce
000110cf
000110d0
000110d1
000110d2
000110d3
000110d4
000110d5
000110d6
000110d7
000110d8
000110d9
000110da
000110db
000110dc
000110dd
000110de
000110df
000110e0
000110e1
000110e2
000110e3
000110e4
000110e5
000110e6
000110e7
000110e8
000110e9
000110ea
000110eb
000110ec
000110ed
000110ee
000110ef
000110f0
000110f1
000110f2
000110f3
000110f4
000110f5
000110f6
000110f7
000110f8
000110f9
000110fa
000110fb
000110fc
000110fd
000110fe
000110ff
00012000
00012001
00012002
00012003
00012004
00012005
00012006
00012007
00012008
00012009
0001200a
0001200b
0001200c
0001200d
0001200e
0001200f
00012010
00012011
00012012
00012013
00012014
00012015
00012016
00012017
00012018
00012019
0001201a
0001201b
0001201c
0001201d
0001201e
0001201f
00012020
00012021
00012022
00012023
00012024
00012025
00012026
00012027
00012028
00012029
0001202a
0001202b
0001202c
0001202d
0001202e
0001202f
00012030
00012031
00012032
00012033
00012034
00012035
00012036
00012037
00012038
00012039
0001203a
0001203b
0001203c
0001203d
0001203e
0001203f
00012040
00012041
00012042
00012043
00012044
00012045
00012046
00012047
00012048
00012049
0001204a
0001204b
0001204c
0001204d
0001204e
0001204f
00012050
00012051
00012052
00012053
00012054
00012055
00012056
00012057
00012058
00012059
0001205a
0001205b
0001205c
0001205d
0001205e
0001205f
00012060
00012061
00012062
00012063
00012064
00012065
00012066
00012067
00012068
00012069
0001206a
0001206b
0001206c
0001206d
0001206e
0001206f
00012070
00012071
00012072
00012073
00012074
00012075
00012076
00012077
00012078
00012079
0001207a
0001207b
0001207c
0001207d
0001207e
0001207f
00012080
00012081
00012082
00012083
00012084
00012085
00012086
00012087
00012088
00012089
0001208a
0001208b
0001208c
0001208d
0001208e
0001208f
00012090
00012091
00012092
00012093
00012094
00012095
00012096
00012097
00012098
00012099
0001209a
0001209b
0001209c
0001209d
0001209e
0001209f
000120a0
000120a1
000120a2
000120a3
000120a4
000120a5
000120a6
000120a7
000120a8
000120a9
000120aa
000120ab
000120ac
000120ad
000120ae
000120af
000120b0
000120b1
000120b2
000120b3
000120b4
000120b5
000120b6
000120b7
000120b8
000120b9
000120ba
000120bb
000120bc
000120bd
000120be
000120bf
000120c0
000120c1
000120c2
000120c3
000120c4
000120c5
000120c6
000120c7
000120c8
000120c9
000120ca
000120cb
000120cc
000120cd
000120ce
000120cf
000120d0
000120d1
000120d2
000120d3
000120d4
000120d5
000120d6
000120d7
000120d8
000120d9
000120da
000120db
000120dc
000120dd
000120de
000120df
000120e0
000120e1
000120e2
000120e3
000120e4
000120e5
000120e6
000120e7
000120e8
000120e9
000120ea
000120eb
000120ec
000120ed
000120ee
000120ef
000120f0
000120f1
000120f2
000120f3
000120f4
000120f5
000120f6
000120f7
000120f8
000120f9
000120fa
000120fb
000120fc
000120fd
000120fe
000120ff
00013000
00013001
00013002
00013003
00013004
00013005
00013006
00013007
00013008
00013009
0001300a
0001300b
0001300c
0001300d
0001300e
0001300f
00013010
00013011
00013012
00013013
00013014
00013015
00013016
00013017
00013018
00013019
0001301a
0001301b
0001301c
0001301d
0001301e
0001301f
00013020
00013021
00013022
00013023
00013024
00013025
00013026
00013027
00013028
00013029
0001302a
0001302b
0001302c
0001302d
0001302e
0001302f
00013030
00013031
00013032
00013033
00013034
00013035
00013036
00013037
00013038
00013039
0001303a
0001303b
0001303c
0001303d
0001303e
0001303f
00013040
00013041
00013042
00013043
00013044
00013045
00013046
00013047
00013048
00013049
0001304a
0001304b
0001304c
0001304d
0001304e
0001304f
00013050
00013051
00013052
00013053
00013054
00013055
00013056
00013057
00013058
00013059
0001305a
0001305b
0001305c
0001305d
0001305e
0001305f
00013060
00013061
00013062
00013063
00013064
00013065
00013066
00013067
00013068
00013069
0001306a
0001306b
0001306c
0001306d
0001306e
0001306f
00013070
00013071
00013072
00013073
00013074
00013075
00013076
00013077
00013078
00013079
0001307a
0001307b
0001307c
0001307d
0001307e
0001307f
00013080
00013081
00013082
00013083
00013084
00013085
00013086
00013087
00013088
00013089
0001308a
0001308b
0001308c
0001308d
0001308e
0001308f
00013090
00013091
00013092
00013093
00013094
00013095
00013096
00013097
00013098
00013099
0001309a
0001309b
0001309c
0001309d
0001309e
0001309f
000130a0
000130a1
000130a2
000130a3
000130a4
000130a5
000130a6
000130a7
000130a8
000130a9
000130aa
000130ab
000130ac
000130ad
000130ae
000130af
000130b0
000130b1
000130b2
000130b3
000130b4
000130b5
000130b6
000130b7
000130b8
000130b9
000130ba
000130bb
000130bc
000130bd
000130be
000130bf
000130c0
000130c1
000130c2
000130c3
000130c4
000130c5
000130c6
000130c7
000130c8
000130c9
000130ca
000130cb
000130cc
000130cd
000130ce
000130cf
000130d0
000130d1
000130d2
000130d3
000130d4
000130d5
000130d6
000130d7
000130d8
000130d9
000130da
000130db
000130dc
000130dd
000130de
000130df
000130e0
000130e1
000130e2
000130e3
000130e4
000130e5
000130e6
000130e7
000130e8
000130e9
000130ea
000130eb
000130ec
000130ed
000130ee
000130ef
000130f0
000130f1
000130f2
000130f3
000130f4
000130f5
000130f6
000130f7
000130f8
000130f9
000130fa
000130fb
000130fc
000130fd
000130fe
000130ff
00014000
00014001
00014002
00014003
00014004
00014005
00014006
00014007
00014008
00014009
0001400a
0001400b
0001400c
0001400d
0001400e
0001400f
00014010
00014011
00014012
00014013
00014014
00014015
00014016
00014017
00014018
00014019
0001401a
0001401b
0001401c
0001401d
0001401e
0001401f
00014020
00014021
00014022
00014023
00014024
00014025
00014026
00014027
00014028
00014029
0001402a
0001402b
0001402c
0001402d
0001402e
0001402f
00014030
00014031
00014032
00014033
00014034
00014035
00014036
00014037
00014038
00014039
0001403a
0001403b
0001403c
0001403d
0001403e
0001403f
00014040
00014041
00014042
00014043
00014044
00014045
00014046
00014047
00014048
00014049
0001404a
0001404b
0001404c
0001404d
0001404e
0001404f
00014050
00014051
00014052
00014053
00014054
00014055
00014056
00014057
00014058
00014059
0001405a
0001405b
0001405c
0001405d
0001405e
0001405f
00014060
00014061
00014062
00014063
00014064
00014065
00014066
00014067
00014068
00014069
0001406a
0001406b
0001406c
0001406d
0001406e
0001406f
00014070
00014071
00014072
00014073
00014074
00014075
00014076
00014077
00014078
00014079
0001407a
0001407b
0001407c
0001407d
0001407e
0001407f
00014080
00014081
00014082
00014083
00014084
00014085
00014086
00014087
00014088
00014089
0001408a
0001408b
0001408c
0001408d
0001408e
0001408f
00014090
00014091
00014092
00014093
00014094
00014095
00014096
00014097
00014098
00014099
0001409a
0001409b
0001409c
0001409d
0001409e
0001409f
000140a0
000140a1
000140a2
000140a3
000140a4
000140a5
000140a6
000140a7
000140a8
000140a9
000140aa
000140ab
000140ac
000140ad
000140ae
000140af
000140b0
000140b1
000140b2
000140b3
000140b4
000140b5
000140b6
000140b7
000140b8
000140b9
000140ba
000140bb
000140bc
000140bd
000140be
000140bf
000140c0
000140c1
000140c2
000140c3
000140c4
000140c5
000140c6
000140c7
000140c8
000140c9
000140ca
000140cb
000140cc
000140cd
000140ce
000140cf
000140d0
000140d1
000140d2
000140d3
000140d4
000140d5
000140d6
000140d7
000140d8
000140d9
000140da
000140db
000140dc
000140dd
000140de
000140df
000140e0
000140e1
000140e2
000140e3
000140e4
000140e5
000140e6
000140e7
000140e8
000140e9
000140ea
000140eb
000140ec
000140ed
000140ee
000140ef
000140f0
000140f1
000140f2
000140f3
000140f4
000140f5
000140f6
000140f7
000140f8
000140f9
000140fa
000140fb
000140fc
000140fd
000140fe
000140ff
00015000
00015001
00015002
00015003
00015004
00015005
00015006
00015007
00015008
00015009
0001500a
0001500b
0001500c
0001500d
0001500e
0001500f
00015010
00015011
00015012
00015013
00015014
00015015
00015016
00015017
00015018
00015019
0001501a
0001501b
0001501c
0001501d
0001501e
0001501f
00015020
00015021
00015022
00015023
00015024
00015025
00015026
00015027
00015028
00015029
0001502a
0001502b
0001502c
0001502d
0001502e
0001502f
00015030
00015031
00015032
00015033
00015034
00015035
00015036
00015037
00015038
00015039
0001503a
0001503b
0001503c
0001503d
0001503e
0001503f
00015040
00015041
00015042
00015043
00015044
00015045
00015046
00015047
00015048
00015049
0001504a
0001504b
0001504c
0001504d
0001504e
0001504f
00015050
00015051
00015052
00015053
00015054
00015055
00015056
00015057
00015058
00015059
0001505a
0001505b
0001505c
0001505d
0001505e
0001505f
00015060
00015061
00015062
00015063
00015064
00015065
00015066
00015067
00015068
00015069
0001506a
0001506b
0001506c
0001506d
0001506e
0001506f
00015070
00015071
00015072
00015073
00015074
00015075
00015076
00015077
00015078
00015079
0001507a
0001507b
0001507c
0001507d
0001507e
0001507f
00015080
00015081
00015082
00015083
00015084
00015085
00015086
00015087
00015088
00015089
0001508a
0001508b
0001508c
0001508d
0001508e
0001508f
00015090
00015091
00015092
00015093
00015094
00015095
00015096
00015097
00015098
00015099
0001509a
0001509b
0001509c
0001509d
0001509e
0001509f
000150a0
000150a1
000150a2
000150a3
000150a4
000150a5
000150a6
000150a7
000150a8
000150a9
000150aa
000150ab
000150ac
000150ad
000150ae
000150af
000150b0
000150b1
000150b2
000150b3
000150b4
000150b5
000150b6
000150b7
000150b8
000150b9
000150ba
000150bb
000150bc
000150bd
000150be
000150bf
000150c0
000150c1
000150c2
000150c3
000150c4
000150c5
000150c6
000150c7
000150c8
000150c9
000150ca
000150cb
000150cc
000150cd
000150ce
000150cf
000150d0
000150d1
000150d2
000150d3
000150d4
000150d5
000150d6
000150d7
000150d8
000150d9
000150da
000150db
000150dc
000150dd
000150de
000150df
000150e0
000150e1
000150e2
000150e3
000150e4
000150e5
000150e6
000150e7
000150e8
000150e9
000150ea
000150eb
000150ec
000150ed
000150ee
000150ef
000150f0
000150f1
000150f2
000150f3
000150f4
000150f5
000150f6
000150f7
000150f8
000150f9
000150fa
000150fb
000150fc
000150fd
000150fe
000150ff
00016000
00016001
00016002
00016003
00016004
00016005
00016006
00016007
00016008
00016009
0001600a
0001600b
0001600c
0001600d
0001600e
0001600f
00016010
00016011
00016012
00016013
00016014
00016015
00016016
00016017
00016018
00016019
0001601a
0001601b
0001601c
0001601d
0001601e
0001601f
00016020
00016021
00016022
00016023
00016024
00016025
00016026
00016027
00016028
00016029
0001602a
0001602b
0001602c
0001602d
0001602e
0001602f
00016030
00016031
00016032
00016033
00016034
00016035
00016036
00016037
00016038
00016039
0001603a
0001603b
0001603c
0001603d
0001603e
0001603f
00016040
00016041
00016042
00016043
00016044
00016045
00016046
00016047
00016048
00016049
0001604a
0001604b
0001604c
0001604d
0001604e
0001604f
00016050
00016051
00016052
00016053
00016054
00016055
00016056
00016057
00016058
00016059
0001605a
0001605b
0001605c
0001605d
0001605e
0001605f
00016060
00016061
00016062
00016063
00016064
00016065
00016066
00016067
00016068
00016069
0001606a
0001606b
0001606c
0001606d
0001606e
0001606f
00016070
00016071
00016072
00016073
00016074
00016075
00016076
00016077
00016078
00016079
0001607a
0001607b
0001607c
0001607d
0001607e
0001607f
00016080
00016081
00016082
00016083
00016084
00016085
00016086
00016087
00016088
00016089
0001608a
0001608b
0001608c
0001608d
0001608e
0001608f
00016090
00016091
00016092
00016093
00016094
00016095
00016096
00016097
00016098
00016099
0001609a
0001609b
0001609c
0001609d
0001609e
0001609f
000160a0
000160a1
000160a2
000160a3
000160a4
000160a5
000160a6
000160a7
000160a8
000160a9
000160aa
000160ab
000160ac
000160ad
000160ae
000160af
000160b0
000160b1
000160b2
000160b3
000160b4
000160b5
000160b6
000160b7
000160b8
000160b9
000160ba
000160bb
000160bc
000160bd
000160be
000160bf
000160c0
000160c1
000160c2
000160c3
000160c4
000160c5
000160c6
000160c7
000160c8
000160c9
000160ca
000160cb
000160cc
000160cd
000160ce
000160cf
000160d0
000160d1
000160d2
000160d3
000160d4
000160d5
000160d6
000160d7
000160d8
000160d9
000160da
000160db
000160dc
000160dd
000160de
000160df
000160e0
000160e1
000160e2
000160e3
000160e4
000160e5
000160e6
000160e7
000160e8
000160e9
000160ea
000160eb
000160ec
000160ed
000160ee
000160ef
000160f0
000160f1
000160f2
000160f3
000160f4
000160f5
000160f6
000160f7
000160f8
000160f9
000160fa
000160fb
000160fc
000160fd
000160fe
000160ff
00017000
00017001
00017002
00017003
00017004
00017005
00017006
00017007
00017008
00017009
0001700a
0001700b
0001700c
0001700d
0001700e
0001700f
00017010
00017011
00017012
00017013
00017014
00017015
00017016
00017017
00017018
00017019
0001701a
0001701b
0001701c
0001701d
0001701e
0001701f
00017020
00017021
00017022
00017023
00017024
00017025
00017026
00017027
00017028
00017029
0001702a
0001702b
0001702c
0001702d
0001702e
0001702f
00017030
00017031
00017032
00017033
00017034
00017035
00017036
00017037
00017038
00017039
0001703a
0001703b
0001703c
0001703d
0001703e
0001703f
00017040
00017041
00017042
00017043
00017044
00017045
00017046
00017047
00017048
00017049
0001704a
0001704b
0001704c
0001704d
0001704e
0001704f
00017050
00017051
00017052
00017053
00017054
00017055
00017056
00017057
00017058
00017059
0001705a
0001705b
0001705c
0001705d
0001705e
0001705f
00017060
00017061
00017062
00017063
00017064
00017065
00017066
00017067
00017068
00017069
0001706a
0001706b
0001706c
0001706d
0001706e
0001706f
00017070
00017071
00017072
00017073
00017074
00017075
00017076
00017077
00017078
00017079
0001707a
0001707b
0001707c
0001707d
0001707e
0001707f
00017080
00017081
00017082
00017083
00017084
00017085
00017086
00017087
00017088
00017089
0001708a
0001708b
0001708c
0001708d
0001708e
0001708f
00017090
00017091
00017092
00017093
00017094
00017095
00017096
00017097
00017098
00017099
0001709a
0001709b
0001709c
0001709d
0001709e
0001709f
000170a0
000170a1
000170a2
000170a3
000170a4
000170a5
000170a6
000170a7
000170a8
000170a9
000170aa
000170ab
000170ac
000170ad
000170ae
000170af
000170b0
000170b1
000170b2
000170b3
000170b4
000170b5
000170b6
000170b7
000170b8
000170b9
000170ba
000170bb
000170bc
000170bd
000170be
000170bf
000170c0
000170c1
000170c2
000170c3
000170c4
000170c5
000170c6
000170c7
000170c8
000170c9
000170ca
000170cb
000170cc
000170cd
000170ce
000170cf
000170d0
000170d1
000170d2
000170d3
000170d4
000170d5
000170d6
000170d7
000170d8
000170d9
000170da
000170db
000170dc
000170dd
000170de
000170df
000170e0
000170e1
000170e2
000170e3
000170e4
000170e5
000170e6
000170e7
000170e8
000170e9
000170ea
000170eb
000170ec
000170ed
000170ee
000170ef
000170f0
000170f1
000170f2
000170f3
000170f4
000170f5
000170f6
000170f7
000170f8
000170f9
000170fa
000170fb
000170fc
000170fd
000170fe
000170ff
00018000
00018001
00018002
00018003
00018004
00018005
00018006
00018007
00018008
00018009
0001800a
0001800b
0001800c
0001800d
0001800e
0001800f
00018010
00018011
00018012
00018013
00018014
00018015
00018016
00018017
00018018
00018019
0001801a
0001801b
0001801c
0001801d
0001801e
0001801f
00018020
00018021
00018022
00018023
00018024
00018025
00018026
00018027
00018028
00018029
0001802a
0001802b
0001802c
0001802d
0001802e
0001802f
00018030
00018031
00018032
00018033
00018034
00018035
00018036
00018037
00018038
00018039
0001803a
0001803b
0001803c
0001803d
0001803e
0001803f
00018040
00018041
00018042
00018043
00018044
00018045
00018046
00018047
00018048
00018049
0001804a
0001804b
0001804c
0001804d
0001804e
0001804f
00018050
00018051
00018052
00018053
00018054
00018055
00018056
00018057
00018058
00018059
0001805a
0001805b
0001805c
0001805d
0001805e
0001805f
00018060
00018061
00018062
00018063
00018064
00018065
00018066
00018067
00018068
00018069
0001806a
0001806b
0001806c
0001806d
0001806e
0001806f
00018070
00018071
00018072
00018073
00018074
00018075
00018076
00018077
00018078
00018079
0001807a
0001807b
0001807c
0001807d
0001807e
0001807f
00018080
00018081
00018082
00018083
00018084
00018085
00018086
00018087
00018088
00018089
0001808a
0001808b
0001808c
0001808d
0001808e
0001808f
00018090
00018091
00018092
00018093
00018094
00018095
00018096
00018097
00018098
00018099
0001809a
0001809b
0001809c
0001809d
0001809e
0001809f
000180a0
000180a1
000180a2
000180a3
000180a4
000180a5
000180a6
000180a7
000180a8
000180a9
000180aa
000180ab
000180ac
000180ad
000180ae
000180af
000180b0
000180b1
000180b2
000180b3
000180b4
000180b5
000180b6
000180b7
000180b8
000180b9
000180ba
000180bb
000180bc
000180bd
000180be
000180bf
000180c0
000180c1
000180c2
000180c3
000180c4
000180c5
000180c6
000180c7
000180c8
000180c9
000180ca
000180cb
000180cc
000180cd
000180ce
000180cf
000180d0
000180d1
000180d2
000180d3
000180d4
000180d5
000180d6
000180d7
000180d8
000180d9
000180da
000180db
000180dc
000180dd
000180de
000180df
000180e0
000180e1
000180e2
000180e3
000180e4
000180e5
000180e6
000180e7
000180e8
000180e9
000180ea
000180eb
000180ec
000180ed
000180ee
000180ef
000180f0
000180f1
000180f2
000180f3
000180f4
000180f5
000180f6
000180f7
000180f8
000180f9
000180fa
000180fb
000180fc
000180fd
000180fe
000180ff
00019000
00019001
00019002
00019003
00019004
00019005
00019006
00019007
00019008
00019009
0001900a
0001900b
0001900c
0001900d
0001900e
0001900f
00019010
00019011
00019012
00019013
00019014
00019015
00019016
00019017
00019018
00019019
0001901a
0001901b
0001901c
0001901d
0001901e
0001901f
00019020
00019021
00019022
00019023
00019024
00019025
00019026
00019027
00019028
00019029
0001902a
0001902b
0001902c
0001902d
0001902e
0001902f
00019030
00019031
00019032
00019033
00019034
00019035
00019036
00019037
00019038
00019039
0001903a
0001903b
0001903c
0001903d
0001903e
0001903f
00019040
00019041
00019042
00019043
00019044
00019045
00019046
00019047
00019048
00019049
0001904a
0001904b
0001904c
0001904d
0001904e
0001904f
00019050
00019051
00019052
00019053
00019054
00019055
00019056
00019057
00019058
00019059
0001905a
0001905b
0001905c
0001905d
0001905e
0001905f
00019060
00019061
00019062
00019063
00019064
00019065
00019066
00019067
00019068
00019069
0001906a
0001906b
0001906c
0001906d
0001906e
0001906f
00019070
00019071
00019072
00019073
00019074
00019075
00019076
00019077
00019078
00019079
0001907a
0001907b
0001907c
0001907d
0001907e
0001907f
00019080
00019081
00019082
00019083
00019084
00019085
00019086
00019087
00019088
00019089
0001908a
0001908b
0001908c
0001908d
0001908e
0001908f
00019090
00019091
00019092
00019093
00019094
00019095
00019096
00019097
00019098
00019099
0001909a
0001909b
0001909c
0001909d
0001909e
0001909f
000190a0
000190a1
000190a2
000190a3
000190a4
000190a5
000190a6
000190a7
000190a8
000190a9
000190aa
000190ab
000190ac
000190ad
000190ae
000190af
000190b0
000190b1
000190b2
000190b3
000190b4
000190b5
000190b6
000190b7
000190b8
000190b9
000190ba
000190bb
000190bc
000190bd
000190be
000190bf
000190c0
000190c1
000190c2
000190c3
000190c4
000190c5
000190c6
000190c7
000190c8
000190c9
000190ca
000190cb
000190cc
000190cd
000190ce
000190cf
000190d0
000190d1
000190d2
000190d3
000190d4
000190d5
000190d6
000190d7
000190d8
000190d9
000190da
000190db
000190dc
000190dd
000190de
000190df
000190e0
000190e1
000190e2
000190e3
000190e4
000190e5
000190e6
000190e7
000190e8
000190e9
000190ea
000190eb
000190ec
000190ed
000190ee
000190ef
000190f0
000190f1
000190f2
000190f3
000190f4
000190f5
000190f6
000190f7
000190f8
000190f9
000190fa
000190fb
000190fc
000190fd
000190fe
000190ff
0001a000
0001a001
0001a002
0001a003
0001a004
0001a005
0001a006
0001a007
0001a008
0001a009
0001a00a
0001a00b
0001a00c
0001a00d
0001a00e
0001a00f
0001a010
0001a011
0001a012
0001a013
0001a014
0001a015
0001a016
0001a017
0001a018
0001a019
0001a01a
0001a01b
0001a01c
0001a01d
0001a01e
0001a01f
0001a020
0001a021
0001a022
0001a023
0001a024
0001a025
0001a026
0001a027
0001a028
0001a029
0001a02a
0001a02b
0001a02c
0001a02d
0001a02e
0001a02f
0001a030
0001a031
0001a032
0001a033
0001a034
0001a035
0001a036
0001a037
0001a038
0001a039
0001a03a
0001a03b
0001a03c
0001a03d
0001a03e
0001a03f
0001a040
0001a041
0001a042
0001a043
0001a044
0001a045
0001a046
0001a047
0001a048
0001a049
0001a04a
0001a04b
0001a04c
0001a04d
0001a04e
0001a04f
0001a050
0001a051
0001a052
0001a053
0001a054
0001a055
0001a056
0001a057
0001a058
0001a059
0001a05a
0001a05b
0001a05c
0001a05d
0001a05e
0001a05f
0001a060
0001a061
0001a062
0001a063
0001a064
0001a065
0001a066
0001a067
0001a068
0001a069
0001a06a
0001a06b
0001a06c
0001a06d
0001a06e
0001a06f
0001a070
0001a071
0001a072
0001a073
0001a074
0001a075
0001a076
0001a077
0001a078
0001a079
0001a07a
0001a07b
0001a07c
0001a07d
0001a07e
0001a07f
0001a080
0001a081
0001a082
0001a083
0001a084
0001a085
0001a086
0001a087
0001a088
0001a089
0001a08a
0001a08b
0001a08c
0001a08d
0001a08e
0001a08f
0001a090
0001a091
0001a092
0001a093
0001a094
0001a095
0001a096
0001a097
0001a098
0001a099
0001a09a
0001a09b
0001a09c
0001a09d
0001a09e
0001a09f
0001a0a0
0001a0a1
0001a0a2
0001a0a3
0001a0a4
0001a0a5
0001a0a6
0001a0a7
0001a0a8
0001a0a9
0001a0aa
0001a0ab
0001a0ac
0001a0ad
0001a0ae
0001a0af
0001a0b0
0001a0b1
0001a0b2
0001a0b3
0001a0b4
0001a0b5
0001a0b6
0001a0b7
0001a0b8
0001a0b9
0001a0ba
0001a0bb
0001a0bc
0001a0bd
0001a0be
0001a0bf
0001a0c0
0001a0c1
0001a0c2
0001a0c3
0001a0c4
0001a0c5
0001a0c6
0001a0c7
0001a0c8
0001a0c9
0001a0ca
0001a0cb
0001a0cc
0001a0cd
0001a0ce
0001a0cf
0001a0d0
0001a0d1
0001a0d2
0001a0d3
0001a0d4
0001a0d5
0001a0d6
0001a0d7
0001a0d8
0001a0d9
0001a0da
0001a0db
0001a0dc
0001a0dd
0001a0de
0001a0df
0001a0e0
0001a0e1
0001a0e2
0001a0e3
0001a0e4
0001a0e5
0001a0e6
0001a0e7
0001a0e8
0001a0e9
0001a0ea
0001a0eb
0001a0ec
0001a0ed
0001a0ee
0001a0ef
0001a0f0
0001a0f1
0001a0f2
0001a0f3
0001a0f4
0001a0f5
0001a0f6
0001a0f7
0001a0f8
0001a0f9
0001a0fa
0001a0fb
0001a0fc
0001a0fd
0001a0fe
0001a0ff
0001b000
0001b001
0001b002
0001b003
0001b004
0001b005
0001b006
0001b007
0001b008
0001b009
0001b00a
0001b00b
0001b00c
0001b00d
0001b00e
0001b00f
0001b010
0001b011
0001b012
0001b013
0001b014
0001b015
0001b016
0001b017
0001b018
0001b019
0001b01a
0001b01b
0001b01c
0001b01d
0001b01e
0001b01f
0001b020
0001b021
0001b022
0001b023
0001b024
0001b025
0001b026
0001b027
0001b028
0001b029
0001b02a
0001b02b
0001b02c
0001b02d
0001b02e
0001b02f
0001b030
0001b031
0001b032
0001b033
0001b034
0001b035
0001b036
0001b037
0001b038
0001b039
0001b03a
0001b03b
0001b03c
0001b03d
0001b03e
0001b03f
0001b040
0001b041
0001b042
0001b043
0001b044
0001b045
0001b046
0001b047
0001b048
0001b049
0001b04a
0001b04b
0001b04c
0001b04d
0001b04e
0001b04f
0001b050
0001b051
0001b052
0001b053
0001b054
0001b055
0001b056
0001b057
0001b058
0001b059
0001b05a
0001b05b
0001b05c
0001b05d
0001b05e
0001b05f
0001b060
0001b061
0001b062
0001b063
0001b064
0001b065
0001b066
0001b067
0001b068
0001b069
0001b06a
0001b06b
0001b06c
0001b06d
0001b06e
0001b06f
0001b070
0001b071
0001b072
0001b073
0001b074
0001b075
0001b076
0001b077
0001b078
0001b079
0001b07a
0001b07b
0001b07c
0001b07d
0001b07e
0001b07f
0001b080
0001b081
0001b082
0001b083
0001b084
0001b085
0001b086
0001b087
0001b088
0001b089
0001b08a
0001b08b
0001b08c
0001b08d
0001b08e
0001b08f
0001b090
0001b091
0001b092
0001b093
0001b094
0001b095
0001b096
0001b097
0001b098
0001b099
0001b09a
0001b09b
0001b09c
0001b09d
0001b09e
0001b09f
0001b0a0
0001b0a1
0001b0a2
0001b0a3
0001b0a4
0001b0a5
0001b0a6
0001b0a7
0001b0a8
0001b0a9
0001b0aa
0001b0ab
0001b0ac
0001b0ad
0001b0ae
0001b0af
0001b0b0
0001b0b1
0001b0b2
0001b0b3
0001b0b4
0001b0b5
0001b0b6
0001b0b7
0001b0b8
0001b0b9
0001b0ba
0001b0bb
0001b0bc
0001b0bd
0001b0be
0001b0bf
0001b0c0
0001b0c1
0001b0c2
0001b0c3
0001b0c4
0001b0c5
0001b0c6
0001b0c7
0001b0c8
0001b0c9
0001b0ca
0001b0cb
0001b0cc
0001b0cd
0001b0ce
0001b0cf
0001b0d0
0001b0d1
0001b0d2
0001b0d3
0001b0d4
0001b0d5
0001b0d6
0001b0d7
0001b0d8
0001b0d9
0001b0da
0001b0db
0001b0dc
0001b0dd
0001b0de
0001b0df
0001b0e0
0001b0e1
0001b0e2
0001b0e3
0001b0e4
0001b0e5
0001b0e6
0001b0e7
0001b0e8
0001b0e9
0001b0ea
0001b0eb
0001b0ec
0001b0ed
0001b0ee
0001b0ef
0001b0f0
0001b0f1
0001b0f2
0001b0f3
0001b0f4
0001b0f5
0001b0f6
0001b0f7
0001b0f8
0001b0f9
0001b0fa
0001b0fb
0001b0fc
0001b0fd
0001b0fe
0001b0ff
0001c000
0001c001
0001c002
0001c003
0001c004
0001c005
0001c006
0001c007
0001c008
0001c009
0001c00a
0001c00b
0001c00c
0001c00d
0001c00e
0001c00f
0001c010
0001c011
0001c012
0001c013
0001c014
0001c015
0001c016
0001c017
0001c018
0001c019
0001c01a
0001c01b
0001c01c
0001c01d
0001c01e
0001c01f
0001c020
0001c021
0001c022
0001c023
0001c024
0001c025
0001c026
0001c027
0001c028
0001c029
0001c02a
0001c02b
0001c02c
0001c02d
0001c02e
0001c02f
0001c030
0001c031
0001c032
0001c033
0001c034
0001c035
0001c036
0001c037
0001c038
0001c039
0001c03a
0001c03b
0001c03c
0001c03d
0001c03e
0001c03f
0001c040
0001c041
0001c042
0001c043
0001c044
0001c045
0001c046
0001c047
0001c048
0001c049
0001c04a
0001c04b
0001c04c
0001c04d
0001c04e
0001c04f
0001c050
0001c051
0001c052
0001c053
0001c054
0001c055
0001c056
0001c057
0001c058
0001c059
0001c05a
0001c05b
0001c05c
0001c05d
0001c05e
0001c05f
0001c060
0001c061
0001c062
0001c063
0001c064
0001c065
0001c066
0001c067
0001c068
0001c069
0001c06a
0001c06b
0001c06c
0001c06d
0001c06e
0001c06f
0001c070
0001c071
0001c072
0001c073
0001c074
0001c075
0001c076
0001c077
0001c078
0001c079
0001c07a
0001c07b
0001c07c
0001c07d
0001c07e
0001c07f
0001c080
0001c081
0001c082
0001c083
0001c084
0001c085
0001c086
0001c087
0001c088
0001c089
0001c08a
0001c08b
0001c08c
0001c08d
0001c08e
0001c08f
0001c090
0001c091
0001c092
0001c093
0001c094
0001c095
0001c096
0001c097
0001c098
0001c099
0001c09a
0001c09b
0001c09c
0001c09d
0001c09e
0001c09f
0001c0a0
0001c0a1
0001c0a2
0001c0a3
0001c0a4
0001c0a5
0001c0a6
0001c0a7
0001c0a8
0001c0a9
0001c0aa
0001c0ab
0001c0ac
0001c0ad
0001c0ae
0001c0af
0001c0b0
0001c0b1
0001c0b2
0001c0b3
0001c0b4
0001c0b5
0001c0b6
0001c0b7
0001c0b8
0001c0b9
0001c0ba
0001c0bb
0001c0bc
0001c0bd
0001c0be
0001c0bf
0001c0c0
0001c0c1
0001c0c2
0001c0c3
0001c0c4
0001c0c5
0001c0c6
0001c0c7
0001c0c8
0001c0c9
0001c0ca
0001c0cb
0001c0cc
0001c0cd
0001c0ce
0001c0cf
0001c0d0
0001c0d1
0001c0d2
0001c0d3
0001c0d4
0001c0d5
0001c0d6
0001c0d7
0001c0d8
0001c0d9
0001c0da
0001c0db
0001c0dc
0001c0dd
0001c0de
0001c0df
0001c0e0
0001c0e1
0001c0e2
0001c0e3
0001c0e4
0001c0e5
0001c0e6
0001c0e7
0001c0e8
0001c0e9
0001c0ea
0001c0eb
0001c0ec
0001c0ed
0001c0ee
0001c0ef
0001c0f0
0001c0f1
0001c0f2
0001c0f3
0001c0f4
0001c0f5
0001c0f6
0001c0f7
0001c0f8
0001c0f9
0001c0fa
0001c0fb
0001c0fc
0001c0fd
0001c0fe
0001c0ff
0001d000
0001d001
0001d002
0001d003
0001d004
0001d005
0001d006
0001d007
0001d008
0001d009
0001d00a
0001d00b
0001d00c
0001d00d
0001d00e
0001d00f
0001d010
0001d011
0001d012
0001d013
0001d014
0001d015
0001d016
0001d017
0001d018
0001d019
0001d01a
0001d01b
0001d01c
0001d01d
0001d01e
0001d01f
0001d020
0001d021
0001d022
0001d023
0001d024
0001d025
0001d026
0001d027
0001d028
0001d029
0001d02a
0001d02b
0001d02c
0001d02d
0001d02e
0001d02f
0001d030
0001d031
0001d032
0001d033
0001d034
0001d035
0001d036
0001d037
0001d038
0001d039
0001d03a
0001d03b
0001d03c
0001d03d
0001d03e
0001d03f
0001d040
0001d041
0001d042
0001d043
0001d044
0001d045
0001d046
0001d047
0001d048
0001d049
0001d04a
0001d04b
0001d04c
0001d04d
0001d04e
0001d04f
0001d050
0001d051
0001d052
0001d053
0001d054
0001d055
0001d056
0001d057
0001d058
0001d059
0001d05a
0001d05b
0001d05c
0001d05d
0001d05e
0001d05f
0001d060
0001d061
0001d062
0001d063
0001d064
0001d065
0001d066
0001d067
0001d068
0001d069
0001d06a
0001d06b
0001d06c
0001d06d
0001d06e
0001d06f
0001d070
0001d071
0001d072
0001d073
0001d074
0001d075
0001d076
0001d077
0001d078
0001d079
0001d07a
0001d07b
0001d07c
0001d07d
0001d07e
0001d07f
0001d080
0001d081
0001d082
0001d083
0001d084
0001d085
0001d086
0001d087
0001d088
0001d089
0001d08a
0001d08b
0001d08c
0001d08d
0001d08e
0001d08f
0001d090
0001d091
0001d092
0001d093
0001d094
0001d095
0001d096
0001d097
0001d098
0001d099
0001d09a
0001d09b
0001d09c
0001d09d
0001d09e
0001d09f
0001d0a0
0001d0a1
0001d0a2
0001d0a3
0001d0a4
0001d0a5
0001d0a6
0001d0a7
0001d0a8
0001d0a9
0001d0aa
0001d0ab
0001d0ac
0001d0ad
0001d0ae
0001d0af
0001d0b0
0001d0b1
0001d0b2
0001d0b3
0001d0b4
0001d0b5
0001d0b6
0001d0b7
0001d0b8
0001d0b9
0001d0ba
0001d0bb
0001d0bc
0001d0bd
0001d0be
0001d0bf
0001d0c0
0001d0c1
0001d0c2
0001d0c3
0001d0c4
0001d0c5
0001d0c6
0001d0c7
0001d0c8
0001d0c9
0001d0ca
0001d0cb
0001d0cc
0001d0cd
0001d0ce
0001d0cf
0001d0d0
0001d0d1
0001d0d2
0001d0d3
0001d0d4
0001d0d5
0001d0d6
0001d0d7
0001d0d8
0001d0d9
0001d0da
0001d0db
0001d0dc
0001d0dd
0001d0de
0001d0df
0001d0e0
0001d0e1
0001d0e2
0001d0e3
0001d0e4
0001d0e5
0001d0e6
0001d0e7
0001d0e8
0001d0e9
0001d0ea
0001d0eb
0001d0ec
0001d0ed
0001d0ee
0001d0ef
0001d0f0
0001d0f1
0001d0f2
0001d0f3
0001d0f4
0001d0f5
0001d0f6
0001d0f7
0001d0f8
0001d0f9
0001d0fa
0001d0fb
0001d0fc
0001d0fd
0001d0fe
0001d0ff
0001e000
0001e001
0001e002
0001e003
0001e004
0001e005
0001e006
0001e007
0001e008
0001e009
0001e00a
0001e00b
0001e00c
0001e00d
0001e00e
0001e00f
0001e010
0001e011
0001e012
0001e013
0001e014
0001e015
0001e016
0001e017
0001e018
0001e019
0001e01a
0001e01b
0001e01c
0001e01d
0001e01e
0001e01f
0001e020
0001e021
0001e022
0001e023
0001e024
0001e025
0001e026
0001e027
0001e028
0001e029
0001e02a
0001e02b
0001e02c
0001e02d
0001e02e
0001e02f
0001e030
0001e031
0001e032
0001e033
0001e034
0001e035
0001e036
0001e037
0001e038
0001e039
0001e03a
0001e03b
0001e03c
0001e03d
0001e03e
0001e03f
0001e040
0001e041
0001e042
0001e043
0001e044
0001e045
0001e046
0001e047
0001e048
0001e049
0001e04a
0001e04b
0001e04c
0001e04d
0001e04e
0001e04f
0001e050
0001e051
0001e052
0001e053
0001e054
0001e055
0001e056
0001e057
0001e058
0001e059
0001e05a
0001e05b
0001e05c
0001e05d
0001e05e
0001e05f
0001e060
0001e061
0001e062
0001e063
0001e064
0001e065
0001e066
0001e067
0001e068
0001e069
0001e06a
0001e06b
0001e06c
0001e06d
0001e06e
0001e06f
0001e070
0001e071
0001e072
0001e073
0001e074
0001e075
0001e076
0001e077
0001e078
0001e079
0001e07a
0001e07b
0001e07c
0001e07d
0001e07e
0001e07f
0001e080
0001e081
0001e082
0001e083
0001e084
0001e085
0001e086
0001e087
0001e088
0001e089
0001e08a
0001e08b
0001e08c
0001e08d
0001e08e
0001e08f
0001e090
0001e091
0001e092
0001e093
0001e094
0001e095
0001e096
0001e097
0001e098
0001e099
0001e09a
0001e09b
0001e09c
0001e09d
0001e09e
0001e09f
0001e0a0
0001e0a1
0001e0a2
0001e0a3
0001e0a4
0001e0a5
0001e0a6
0001e0a7
0001e0a8
0001e0a9
0001e0aa
0001e0ab
0001e0ac
0001e0ad
0001e0ae
0001e0af
0001e0b0
0001e0b1
0001e0b2
0001e0b3
0001e0b4
0001e0b5
0001e0b6
0001e0b7
0001e0b8
0001e0b9
0001e0ba
0001e0bb
0001e0bc
0001e0bd
0001e0be
0001e0bf
0001e0c0
0001e0c1
0001e0c2
0001e0c3
0001e0c4
0001e0c5
0001e0c6
0001e0c7
0001e0c8
0001e0c9
0001e0ca
0001e0cb
0001e0cc
0001e0cd
0001e0ce
0001e0cf
0001e0d0
0001e0d1
0001e0d2
0001e0d3
0001e0d4
0001e0d5
0001e0d6
0001e0d7
0001e0d8
0001e0d9
0001e0da
0001e0db
0001e0dc
0001e0dd
0001e0de
0001e0df
0001e0e0
0001e0e1
0001e0e2
0001e0e3
0001e0e4
0001e0e5
0001e0e6
0001e0e7
0001e0e8
0001e0e9
0001e0ea
0001e0eb
0001e0ec
0001e0ed
0001e0ee
0001e0ef
0001e0f0
0001e0f1
0001e0f2
0001e0f3
0001e0f4
0001e0f5
0001e0f6
0001e0f7
0001e0f8
0001e0f9
0001e0fa
0001e0fb
0001e0fc
0001e0fd
0001e0fe
0001e0ff
0001f000
0001f001
0001f002
0001f003
0001f004
0001f005
0001f006
0001f007
0001f008
0001f009
0001f00a
0001f00b
0001f00c
0001f00d
0001f00e
0001f00f
0001f010
0001f011
0001f012
0001f013
0001f014
0001f015
0001f016
0001f017
0001f018
0001f019
0001f01a
0001f01b
0001f01c
0001f01d
0001f01e
0001f01f
0001f020
0001f021
0001f022
0001f023
0001f024
0001f025
0001f026
0001f027
0001f028
0001f029
0001f02a
0001f02b
0001f02c
0001f02d
0001f02e
0001f02f
0001f030
0001f031
0001f032
0001f033
0001f034
0001f035
0001f036
0001f037
0001f038
0001f039
0001f03a
0001f03b
0001f03c
0001f03d
0001f03e
0001f03f
0001f040
0001f041
0001f042
0001f043
0001f044
0001f045
0001f046
0001f047
0001f048
0001f049
0001f04a
0001f04b
0001f04c
0001f04d
0001f04e
0001f04f
0001f050
0001f051
0001f052
0001f053
0001f054
0001f055
0001f056
0001f057
0001f058
0001f059
0001f05a
0001f05b
0001f05c
0001f05d
0001f05e
0001f05f
0001f060
0001f061
0001f062
0001f063
0001f064
0001f065
0001f066
0001f067
0001f068
0001f069
0001f06a
0001f06b
0001f06c
0001f06d
0001f06e
0001f06f
0001f070
0001f071
0001f072
0001f073
0001f074
0001f075
0001f076
0001f077
0001f078
0001f079
0001f07a
0001f07b
0001f07c
0001f07d
0001f07e
0001f07f
0001f080
0001f081
0001f082
0001f083
0001f084
0001f085
0001f086
0001f087
0001f088
0001f089
0001f08a
0001f08b
0001f08c
0001f08d
0001f08e
0001f08f
0001f090
0001f091
0001f092
0001f093
0001f094
0001f095
0001f096
0001f097
0001f098
0001f099
0001f09a
0001f09b
0001f09c
0001f09d
0001f09e
0001f09f
0001f0a0
0001f0a1
0001f0a2
0001f0a3
0001f0a4
0001f0a5
0001f0a6
0001f0a7
0001f0a8
0001f0a9
0001f0aa
0001f0ab
0001f0ac
0001f0ad
0001f0ae
0001f0af
0001f0b0
0001f0b1
0001f0b2
0001f0b3
0001f0b4
0001f0b5
0001f0b6
0001f0b7
0001f0b8
0001f0b9
0001f0ba
0001f0bb
0001f0bc
0001f0bd
0001f0be
0001f0bf
0001f0c0
0001f0c1
0001f0c2
0001f0c3
0001f0c4
0001f0c5
0001f0c6
0001f0c7
0001f0c8
0001f0c9
0001f0ca
0001f0cb
0001f0cc
0001f0cd
0001f0ce
0001f0cf
0001f0d0
0001f0d1
0001f0d2
0001f0d3
0001f0d4
0001f0d5
0001f0d6
0001f0d7
0001f0d8
0001f0d9
0001f0da
0001f0db
0001f0dc
0001f0dd
0001f0de
0001f0df
0001f0e0
0001f0e1
0001f0e2
0001f0e3
0001f0e4
0001f0e5
0001f0e6
0001f0e7
0001f0e8
0001f0e9
0001f0ea
0001f0eb
0001f0ec
0001f0ed
0001f0ee
0001f0ef
0001f0f0
0001f0f1
0001f0f2
0001f0f3
0001f0f4
0001f0f5
0001f0f6
0001f0f7
0001f0f8
0001f0f9
0001f0fa
0001f0fb
0001f0fc
0001f0fd
0001f0fe
0001f0ff
00020000
00020001
00020002
00020003
00020004
00020005
00020006
00020007
00020008
00020009
0002000a
0002000b
0002000c
0002000d
0002000e
0002000f
00020010
00020011
00020012
00020013
00020014
00020015
00020016
00020017
00020018
00020019
0002001a
0002001b
0002001c
0002001d
0002001e
0002001f
00020020
00020021
00020022
00020023
00020024
00020025
00020026
00020027
00020028
00020029
0002002a
0002002b
0002002c
0002002d
0002002e
0002002f
00020030
00020031
00020032
00020033
00020034
00020035
00020036
00020037
00020038
00020039
0002003a
0002003b
0002003c
0002003d
0002003e
0002003f
00020040
00020041
00020042
00020043
00020044
00020045
00020046
00020047
00020048
00020049
0002004a
0002004b
0002004c
0002004d
0002004e
0002004f
00020050
00020051
00020052
00020053
00020054
00020055
00020056
00020057
00020058
00020059
0002005a
0002005b
0002005c
0002005d
0002005e
0002005f
00020060
00020061
00020062
00020063
00020064
00020065
00020066
00020067
00020068
00020069
0002006a
0002006b
0002006c
0002006d
0002006e
0002006f
00020070
00020071
00020072
00020073
00020074
00020075
00020076
00020077
00020078
00020079
0002007a
0002007b
0002007c
0002007d
0002007e
0002007f
00020080
00020081
00020082
00020083
00020084
00020085
00020086
00020087
00020088
00020089
0002008a
0002008b
0002008c
0002008d
0002008e
0002008f
00020090
00020091
00020092
00020093
00020094
00020095
00020096
00020097
00020098
00020099
0002009a
0002009b
0002009c
0002009d
0002009e
0002009f
000200a0
000200a1
000200a2
000200a3
000200a4
000200a5
000200a6
000200a7
000200a8
000200a9
000200aa
000200ab
000200ac
000200ad
000200ae
000200af
000200b0
000200b1
000200b2
000200b3
000200b4
000200b5
000200b6
000200b7
000200b8
000200b9
000200ba
000200bb
000200bc
000200bd
000200be
000200bf
000200c0
000200c1
000200c2
000200c3
000200c4
000200c5
000200c6
000200c7
000200c8
000200c9
000200ca
000200cb
000200cc
000200cd
000200ce
000200cf
000200d0
000200d1
000200d2
000200d3
000200d4
000200d5
000200d6
000200d7
000200d8
000200d9
000200da
000200db
000200dc
000200dd
000200de
000200df
000200e0
000200e1
000200e2
000200e3
000200e4
000200e5
000200e6
000200e7
000200e8
000200e9
000200ea
000200eb
000200ec
000200ed
000200ee
000200ef
000200f0
000200f1
000200f2
000200f3
000200f4
000200f5
000200f6
000200f7
000200f8
000200f9
000200fa
000200fb
000200fc
000200fd
000200fe
000200ff
00021000
00021001
00021002
00021003
00021004
00021005
00021006
00021007
00021008
00021009
0002100a
0002100b
0002100c
0002100d
0002100e
0002100f
00021010
00021011
00021012
00021013
00021014
00021015
00021016
00021017
00021018
00021019
0002101a
0002101b
0002101c
0002101d
0002101e
0002101f
00021020
00021021
00021022
00021023
00021024
00021025
00021026
00021027
00021028
00021029
0002102a
0002102b
0002102c
0002102d
0002102e
0002102f
00021030
00021031
00021032
00021033
00021034
00021035
00021036
00021037
00021038
00021039
0002103a
0002103b
0002103c
0002103d
0002103e
0002103f
00021040
00021041
00021042
00021043
00021044
00021045
00021046
00021047
00021048
00021049
0002104a
0002104b
0002104c
0002104d
0002104e
0002104f
00021050
00021051
00021052
00021053
00021054
00021055
00021056
00021057
00021058
00021059
0002105a
0002105b
0002105c
0002105d
0002105e
0002105f
00021060
00021061
00021062
00021063
00021064
00021065
00021066
00021067
00021068
00021069
0002106a
0002106b
0002106c
0002106d
0002106e
0002106f
00021070
00021071
00021072
00021073
00021074
00021075
00021076
00021077
00021078
00021079
0002107a
0002107b
0002107c
0002107d
0002107e
0002107f
00021080
00021081
00021082
00021083
00021084
00021085
00021086
00021087
00021088
00021089
0002108a
0002108b
0002108c
0002108d
0002108e
0002108f
00021090
00021091
00021092
00021093
00021094
00021095
00021096
00021097
00021098
00021099
0002109a
0002109b
0002109c
0002109d
0002109e
0002109f
000210a0
000210a1
000210a2
000210a3
000210a4
000210a5
000210a6
000210a7
000210a8
000210a9
000210aa
000210ab
000210ac
000210ad
000210ae
000210af
000210b0
000210b1
000210b2
000210b3
000210b4
000210b5
000210b6
000210b7
000210b8
000210b9
000210ba
000210bb
000210bc
000210bd
000210be
000210bf
000210c0
000210c1
000210c2
000210c3
000210c4
000210c5
000210c6
000210c7
000210c8
000210c9
000210ca
000210cb
000210cc
000210cd
000210ce
000210cf
000210d0
000210d1
000210d2
000210d3
000210d4
000210d5
000210d6
000210d7
000210d8
000210d9
000210da
000210db
000210dc
000210dd
000210de
000210df
000210e0
000210e1
000210e2
000210e3
000210e4
000210e5
000210e6
000210e7
000210e8
000210e9
000210ea
000210eb
000210ec
000210ed
000210ee
000210ef
000210f0
000210f1
000210f2
000210f3
000210f4
000210f5
000210f6
000210f7
000210f8
000210f9
000210fa
000210fb
000210fc
000210fd
000210fe
000210ff
00022000
00022001
00022002
00022003
00022004
00022005
00022006
00022007
00022008
00022009
0002200a
0002200b
0002200c
0002200d
0002200e
0002200f
00022010
00022011
00022012
00022013
00022014
00022015
00022016
00022017
00022018
00022019
0002201a
0002201b
0002201c
0002201d
0002201e
0002201f
00022020
00022021
00022022
00022023
00022024
00022025
00022026
00022027
00022028
00022029
0002202a
0002202b
0002202c
0002202d
0002202e
0002202f
00022030
00022031
00022032
00022033
00022034
00022035
00022036
00022037
00022038
00022039
0002203a
0002203b
0002203c
0002203d
0002203e
0002203f
00022040
00022041
00022042
00022043
00022044
00022045
00022046
00022047
00022048
00022049
0002204a
0002204b
0002204c
0002204d
0002204e
0002204f
00022050
00022051
00022052
00022053
00022054
00022055
00022056
00022057
00022058
00022059
0002205a
0002205b
0002205c
0002205d
0002205e
0002205f
00022060
00022061
00022062
00022063
00022064
00022065
00022066
00022067
00022068
00022069
0002206a
0002206b
0002206c
0002206d
0002206e
0002206f
00022070
00022071
00022072
00022073
00022074
00022075
00022076
00022077
00022078
00022079
0002207a
0002207b
0002207c
0002207d
0002207e
0002207f
00022080
00022081
00022082
00022083
00022084
00022085
00022086
00022087
00022088
00022089
0002208a
0002208b
0002208c
0002208d
0002208e
0002208f
00022090
00022091
00022092
00022093
00022094
00022095
00022096
00022097
00022098
00022099
0002209a
0002209b
0002209c
0002209d
0002209e
0002209f
000220a0
000220a1
000220a2
000220a3
000220a4
000220a5
000220a6
000220a7
000220a8
000220a9
000220aa
000220ab
000220ac
000220ad
000220ae
000220af
000220b0
000220b1
000220b2
000220b3
000220b4
000220b5
000220b6
000220b7
000220b8
000220b9
000220ba
000220bb
000220bc
000220bd
000220be
000220bf
000220c0
000220c1
000220c2
000220c3
000220c4
000220c5
000220c6
000220c7
000220c8
000220c9
000220ca
000220cb
000220cc
000220cd
000220ce
000220cf
000220d0
000220d1
000220d2
000220d3
000220d4
000220d5
000220d6
000220d7
000220d8
000220d9
000220da
000220db
000220dc
000220dd
000220de
000220df
000220e0
000220e1
000220e2
000220e3
000220e4
000220e5
000220e6
000220e7
000220e8
000220e9
000220ea
000220eb
000220ec
000220ed
000220ee
000220ef
000220f0
000220f1
000220f2
000220f3
000220f4
000220f5
000220f6
000220f7
000220f8
000220f9
000220fa
000220fb
000220fc
000220fd
000220fe
000220ff
00023000
00023001
00023002
00023003
00023004
00023005
00023006
00023007
00023008
00023009
0002300a
0002300b
0002300c
0002300d
0002300e
0002300f
00023010
00023011
00023012
00023013
00023014
00023015
00023016
00023017
00023018
00023019
0002301a
0002301b
0002301c
0002301d
0002301e
0002301f
00023020
00023021
00023022
00023023
00023024
00023025
00023026
00023027
00023028
00023029
0002302a
0002302b
0002302c
0002302d
0002302e
0002302f
00023030
00023031
00023032
00023033
00023034
00023035
00023036
00023037
00023038
00023039
0002303a
0002303b
0002303c
0002303d
0002303e
0002303f
00023040
00023041
00023042
00023043
00023044
00023045
00023046
00023047
00023048
00023049
0002304a
0002304b
0002304c
0002304d
0002304e
0002304f
00023050
00023051
00023052
00023053
00023054
00023055
00023056
00023057
00023058
00023059
0002305a
0002305b
0002305c
0002305d
0002305e
0002305f
00023060
00023061
00023062
00023063
00023064
00023065
00023066
00023067
00023068
00023069
0002306a
0002306b
0002306c
0002306d
0002306e
0002306f
00023070
00023071
00023072
00023073
00023074
00023075
00023076
00023077
00023078
00023079
0002307a
0002307b
0002307c
0002307d
0002307e
0002307f
00023080
00023081
00023082
00023083
00023084
00023085
00023086
00023087
00023088
00023089
0002308a
0002308b
0002308c
0002308d
0002308e
0002308f
00023090
00023091
00023092
00023093
00023094
00023095
00023096
00023097
00023098
00023099
0002309a
0002309b
0002309c
0002309d
0002309e
0002309f
000230a0
000230a1
000230a2
000230a3
000230a4
000230a5
000230a6
000230a7
000230a8
000230a9
000230aa
000230ab
000230ac
000230ad
000230ae
000230af
000230b0
000230b1
000230b2
000230b3
000230b4
000230b5
000230b6
000230b7
000230b8
000230b9
000230ba
000230bb
000230bc
000230bd
000230be
000230bf
000230c0
000230c1
000230c2
000230c3
000230c4
000230c5
000230c6
000230c7
000230c8
000230c9
000230ca
000230cb
000230cc
000230cd
000230ce
000230cf
000230d0
000230d1
000230d2
000230d3
000230d4
000230d5
000230d6
000230d7
000230d8
000230d9
000230da
000230db
000230dc
000230dd
000230de
000230df
000230e0
000230e1
000230e2
000230e3
000230e4
000230e5
000230e6
000230e7
000230e8
000230e9
000230ea
000230eb
000230ec
000230ed
000230ee
000230ef
000230f0
000230f1
000230f2
000230f3
000230f4
000230f5
000230f6
000230f7
000230f8
000230f9
000230fa
000230fb
000230fc
000230fd
000230fe
000230ff
00024000
00024001
00024002
00024003
00024004
00024005
00024006
00024007
00024008
00024009
0002400a
0002400b
0002400c
0002400d
0002400e
0002400f
00024010
00024011
00024012
00024013
00024014
00024015
00024016
00024017
00024018
00024019
0002401a
0002401b
0002401c
0002401d
0002401e
0002401f
00024020
00024021
00024022
00024023
00024024
00024025
00024026
00024027
00024028
00024029
0002402a
0002402b
0002402c
0002402d
0002402e
0002402f
00024030
00024031
00024032
00024033
00024034
00024035
00024036
00024037
00024038
00024039
0002403a
0002403b
0002403c
0002403d
0002403e
0002403f
00024040
00024041
00024042
00024043
00024044
00024045
00024046
00024047
00024048
00024049
0002404a
0002404b
0002404c
0002404d
0002404e
0002404f
00024050
00024051
00024052
00024053
00024054
00024055
00024056
00024057
00024058
00024059
0002405a
0002405b
0002405c
0002405d
0002405e
0002405f
00024060
00024061
00024062
00024063
00024064
00024065
00024066
00024067
00024068
00024069
0002406a
0002406b
0002406c
0002406d
0002406e
0002406f
00024070
00024071
00024072
00024073
00024074
00024075
00024076
00024077
00024078
00024079
0002407a
0002407b
0002407c
0002407d
0002407e
0002407f
00024080
00024081
00024082
00024083
00024084
00024085
00024086
00024087
00024088
00024089
0002408a
0002408b
0002408c
0002408d
0002408e
0002408f
00024090
00024091
00024092
00024093
00024094
00024095
00024096
00024097
00024098
00024099
0002409a
0002409b
0002409c
0002409d
0002409e
0002409f
000240a0
000240a1
000240a2
000240a3
000240a4
000240a5
000240a6
000240a7
000240a8
000240a9
000240aa
000240ab
000240ac
000240ad
000240ae
000240af
000240b0
000240b1
000240b2
000240b3
000240b4
000240b5
000240b6
000240b7
000240b8
000240b9
000240ba
000240bb
000240bc
000240bd
000240be
000240bf
000240c0
000240c1
000240c2
000240c3
000240c4
000240c5
000240c6
000240c7
000240c8
000240c9
000240ca
000240cb
000240cc
000240cd
000240ce
000240cf
000240d0
000240d1
000240d2
000240d3
000240d4
000240d5
000240d6
000240d7
000240d8
000240d9
000240da
000240db
000240dc
000240dd
000240de
000240df
000240e0
000240e1
000240e2
000240e3
000240e4
000240e5
000240e6
000240e7
000240e8
000240e9
000240ea
000240eb
000240ec
000240ed
000240ee
000240ef
000240f0
000240f1
000240f2
000240f3
000240f4
000240f5
000240f6
000240f7
000240f8
000240f9
000240fa
000240fb
000240fc
000240fd
000240fe
000240ff
00025000
00025001
00025002
00025003
00025004
00025005
00025006
00025007
00025008
00025009
0002500a
0002500b
0002500c
0002500d
0002500e
0002500f
00025010
00025011
00025012
00025013
00025014
00025015
00025016
00025017
00025018
00025019
0002501a
0002501b
0002501c
0002501d
0002501e
0002501f
00025020
00025021
00025022
00025023
00025024
00025025
00025026
00025027
00025028
00025029
0002502a
0002502b
0002502c
0002502d
0002502e
0002502f
00025030
00025031
00025032
00025033
00025034
00025035
00025036
00025037
00025038
00025039
0002503a
0002503b
0002503c
0002503d
0002503e
0002503f
00025040
00025041
00025042
00025043
00025044
00025045
00025046
00025047
00025048
00025049
0002504a
0002504b
0002504c
0002504d
0002504e
0002504f
00025050
00025051
00025052
00025053
00025054
00025055
00025056
00025057
00025058
00025059
0002505a
0002505b
0002505c
0002505d
0002505e
0002505f
00025060
00025061
00025062
00025063
00025064
00025065
00025066
00025067
00025068
00025069
0002506a
0002506b
0002506c
0002506d
0002506e
0002506f
00025070
00025071
00025072
00025073
00025074
00025075
00025076
00025077
00025078
00025079
0002507a
0002507b
0002507c
0002507d
0002507e
0002507f
00025080
00025081
00025082
00025083
00025084
00025085
00025086
00025087
00025088
00025089
0002508a
0002508b
0002508c
0002508d
0002508e
0002508f
00025090
00025091
00025092
00025093
00025094
00025095
00025096
00025097
00025098
00025099
0002509a
0002509b
0002509c
0002509d
0002509e
0002509f
000250a0
000250a1
000250a2
000250a3
000250a4
000250a5
000250a6
000250a7
000250a8
000250a9
000250aa
000250ab
000250ac
000250ad
000250ae
000250af
000250b0
000250b1
000250b2
000250b3
000250b4
000250b5
000250b6
000250b7
000250b8
000250b9
000250ba
000250bb
000250bc
000250bd
000250be
000250bf
000250c0
000250c1
000250c2
000250c3
000250c4
000250c5
000250c6
000250c7
000250c8
000250c9
000250ca
000250cb
000250cc
000250cd
000250ce
000250cf
000250d0
000250d1
000250d2
000250d3
000250d4
000250d5
000250d6
000250d7
000250d8
000250d9
000250da
000250db
000250dc
000250dd
000250de
000250df
000250e0
000250e1
000250e2
000250e3
000250e4
000250e5
000250e6
000250e7
000250e8
000250e9
000250ea
000250eb
000250ec
000250ed
000250ee
000250ef
000250f0
000250f1
000250f2
000250f3
000250f4
000250f5
000250f6
000250f7
000250f8
000250f9
000250fa
000250fb
000250fc
000250fd
000250fe
000250ff
00026000
00026001
00026002
00026003
00026004
00026005
00026006
00026007
00026008
00026009
0002600a
0002600b
0002600c
0002600d
0002600e
0002600f
00026010
00026011
00026012
00026013
00026014
00026015
00026016
00026017
00026018
00026019
0002601a
0002601b
0002601c
0002601d
0002601e
0002601f
00026020
00026021
00026022
00026023
00026024
00026025
00026026
00026027
00026028
00026029
0002602a
0002602b
0002602c
0002602d
0002602e
0002602f
00026030
00026031
00026032
00026033
00026034
00026035
00026036
00026037
00026038
00026039
0002603a
0002603b
0002603c
0002603d
0002603e
0002603f
00026040
00026041
00026042
00026043
00026044
00026045
00026046
00026047
00026048
00026049
0002604a
0002604b
0002604c
0002604d
0002604e
0002604f
00026050
00026051
00026052
00026053
00026054
00026055
00026056
00026057
00026058
00026059
0002605a
0002605b
0002605c
0002605d
0002605e
0002605f
00026060
00026061
00026062
00026063
00026064
00026065
00026066
00026067
00026068
00026069
0002606a
0002606b
0002606c
0002606d
0002606e
0002606f
00026070
00026071
00026072
00026073
00026074
00026075
00026076
00026077
00026078
00026079
0002607a
0002607b
0002607c
0002607d
0002607e
0002607f
00026080
00026081
00026082
00026083
00026084
00026085
00026086
00026087
00026088
00026089
0002608a
0002608b
0002608c
0002608d
0002608e
0002608f
00026090
00026091
00026092
00026093
00026094
00026095
00026096
00026097
00026098
00026099
0002609a
0002609b
0002609c
0002609d
0002609e
0002609f
000260a0
000260a1
000260a2
000260a3
000260a4
000260a5
000260a6
000260a7
000260a8
000260a9
000260aa
000260ab
000260ac
000260ad
000260ae
000260af
000260b0
000260b1
000260b2
000260b3
000260b4
000260b5
000260b6
000260b7
000260b8
000260b9
000260ba
000260bb
000260bc
000260bd
000260be
000260bf
000260c0
000260c1
000260c2
000260c3
000260c4
000260c5
000260c6
000260c7
000260c8
000260c9
000260ca
000260cb
000260cc
000260cd
000260ce
000260cf
000260d0
000260d1
000260d2
000260d3
000260d4
000260d5
000260d6
000260d7
000260d8
000260d9
000260da
000260db
000260dc
000260dd
000260de
000260df
000260e0
000260e1
000260e2
000260e3
000260e4
000260e5
000260e6
000260e7
000260e8
000260e9
000260ea
000260eb
000260ec
000260ed
000260ee
000260ef
000260f0
000260f1
000260f2
000260f3
000260f4
000260f5
000260f6
000260f7
000260f8
000260f9
000260fa
000260fb
000260fc
000260fd
000260fe
000260ff
00027000
00027001
00027002
00027003
00027004
00027005
00027006
00027007
00027008
00027009
0002700a
0002700b
0002700c
0002700d
0002700e
0002700f
00027010
00027011
00027012
00027013
00027014
00027015
00027016
00027017
00027018
00027019
0002701a
0002701b
0002701c
0002701d
0002701e
0002701f
00027020
00027021
00027022
00027023
00027024
00027025
00027026
00027027
00027028
00027029
0002702a
0002702b
0002702c
0002702d
0002702e
0002702f
00027030
00027031
00027032
00027033
00027034
00027035
00027036
00027037
00027038
00027039
0002703a
0002703b
0002703c
0002703d
0002703e
0002703f
00027040
00027041
00027042
00027043
00027044
00027045
00027046
00027047
00027048
00027049
0002704a
0002704b
0002704c
0002704d
0002704e
0002704f
00027050
00027051
00027052
00027053
00027054
00027055
00027056
00027057
00027058
00027059
0002705a
0002705b
0002705c
0002705d
0002705e
0002705f
00027060
00027061
00027062
00027063
00027064
00027065
00027066
00027067
00027068
00027069
0002706a
0002706b
0002706c
0002706d
0002706e
0002706f
00027070
00027071
00027072
00027073
00027074
00027075
00027076
00027077
00027078
00027079
0002707a
0002707b
0002707c
0002707d
0002707e
0002707f
00027080
00027081
00027082
00027083
00027084
00027085
00027086
00027087
00027088
00027089
0002708a
0002708b
0002708c
0002708d
0002708e
0002708f
00027090
00027091
00027092
00027093
00027094
00027095
00027096
00027097
00027098
00027099
0002709a
0002709b
0002709c
0002709d
0002709e
0002709f
000270a0
000270a1
000270a2
000270a3
000270a4
000270a5
000270a6
000270a7
000270a8
000270a9
000270aa
000270ab
000270ac
000270ad
000270ae
000270af
000270b0
000270b1
000270b2
000270b3
000270b4
000270b5
000270b6
000270b7
000270b8
000270b9
000270ba
000270bb
000270bc
000270bd
000270be
000270bf
000270c0
000270c1
000270c2
000270c3
000270c4
000270c5
000270c6
000270c7
000270c8
000270c9
000270ca
000270cb
000270cc
000270cd
000270ce
000270cf
000270d0
000270d1
000270d2
000270d3
000270d4
000270d5
000270d6
000270d7
000270d8
000270d9
000270da
000270db
000270dc
000270dd
000270de
000270df
000270e0
000270e1
000270e2
000270e3
000270e4
000270e5
000270e6
000270e7
000270e8
000270e9
000270ea
000270eb
000270ec
000270ed
000270ee
000270ef
000270f0
000270f1
000270f2
000270f3
000270f4
000270f5
000270f6
000270f7
000270f8
000270f9
000270fa
000270fb
000270fc
000270fd
000270fe
000270ff
00028000
00028001
00028002
00028003
00028004
00028005
00028006
00028007
00028008
00028009
0002800a
0002800b
0002800c
0002800d
0002800e
0002800f
00028010
00028011
00028012
00028013
00028014
00028015
00028016
00028017
00028018
00028019
0002801a
0002801b
0002801c
0002801d
0002801e
0002801f
00028020
00028021
00028022
00028023
00028024
00028025
00028026
00028027
00028028
00028029
0002802a
0002802b
0002802c
0002802d
0002802e
0002802f
00028030
00028031
00028032
00028033
00028034
00028035
00028036
00028037
00028038
00028039
0002803a
0002803b
0002803c
0002803d
0002803e
0002803f
00028040
00028041
00028042
00028043
00028044
00028045
00028046
00028047
00028048
00028049
0002804a
0002804b
0002804c
0002804d
0002804e
0002804f
00028050
00028051
00028052
00028053
00028054
00028055
00028056
00028057
00028058
00028059
0002805a
0002805b
0002805c
0002805d
0002805e
0002805f
00028060
00028061
00028062
00028063
00028064
00028065
00028066
00028067
00028068
00028069
0002806a
0002806b
0002806c
0002806d
0002806e
0002806f
00028070
00028071
00028072
00028073
00028074
00028075
00028076
00028077
00028078
00028079
0002807a
0002807b
0002807c
0002807d
0002807e
0002807f
00028080
00028081
00028082
00028083
00028084
00028085
00028086
00028087
00028088
00028089
0002808a
0002808b
0002808c
0002808d
0002808e
0002808f
00028090
00028091
00028092
00028093
00028094
00028095
00028096
00028097
00028098
00028099
0002809a
0002809b
0002809c
0002809d
0002809e
0002809f
000280a0
000280a1
000280a2
000280a3
000280a4
000280a5
000280a6
000280a7
000280a8
000280a9
000280aa
000280ab
000280ac
000280ad
000280ae
000280af
000280b0
000280b1
000280b2
000280b3
000280b4
000280b5
000280b6
000280b7
000280b8
000280b9
000280ba
000280bb
000280bc
000280bd
000280be
000280bf
000280c0
000280c1
000280c2
000280c3
000280c4
000280c5
000280c6
000280c7
000280c8
000280c9
000280ca
000280cb
000280cc
000280cd
000280ce
000280cf
000280d0
000280d1
000280d2
000280d3
000280d4
000280d5
000280d6
000280d7
000280d8
000280d9
000280da
000280db
000280dc
000280dd
000280de
000280df
000280e0
000280e1
000280e2
000280e3
000280e4
000280e5
000280e6
000280e7
000280e8
000280e9
000280ea
000280eb
000280ec
000280ed
000280ee
000280ef
000280f0
000280f1
000280f2
000280f3
000280f4
000280f5
000280f6
000280f7
000280f8
000280f9
000280fa
000280fb
000280fc
000280fd
000280fe
000280ff
00029000
00029001
00029002
00029003
00029004
00029005
00029006
00029007
00029008
00029009
0002900a
0002900b
0002900c
0002900d
0002900e
0002900f
00029010
00029011
00029012
00029013
00029014
00029015
00029016
00029017
00029018
00029019
0002901a
0002901b
0002901c
0002901d
0002901e
0002901f
00029020
00029021
00029022
00029023
00029024
00029025
00029026
00029027
00029028
00029029
0002902a
0002902b
0002902c
0002902d
0002902e
0002902f
00029030
00029031
00029032
00029033
00029034
00029035
00029036
00029037
00029038
00029039
0002903a
0002903b
0002903c
0002903d
0002903e
0002903f
00029040
00029041
00029042
00029043
00029044
00029045
00029046
00029047
00029048
00029049
0002904a
0002904b
0002904c
0002904d
0002904e
0002904f
00029050
00029051
00029052
00029053
00029054
00029055
00029056
00029057
00029058
00029059
0002905a
0002905b
0002905c
0002905d
0002905e
0002905f
00029060
00029061
00029062
00029063
00029064
00029065
00029066
00029067
00029068
00029069
0002906a
0002906b
0002906c
0002906d
0002906e
0002906f
00029070
00029071
00029072
00029073
00029074
00029075
00029076
00029077
00029078
00029079
0002907a
0002907b
0002907c
0002907d
0002907e
0002907f
00029080
00029081
00029082
00029083
00029084
00029085
00029086
00029087
00029088
00029089
0002908a
0002908b
0002908c
0002908d
0002908e
0002908f
00029090
00029091
00029092
00029093
00029094
00029095
00029096
00029097
00029098
00029099
0002909a
0002909b
0002909c
0002909d
0002909e
0002909f
000290a0
000290a1
000290a2
000290a3
000290a4
000290a5
000290a6
000290a7
000290a8
000290a9
000290aa
000290ab
000290ac
000290ad
000290ae
000290af
000290b0
000290b1
000290b2
000290b3
000290b4
000290b5
000290b6
000290b7
000290b8
000290b9
000290ba
000290bb
000290bc
000290bd
000290be
000290bf
000290c0
000290c1
000290c2
000290c3
000290c4
000290c5
000290c6
000290c7
000290c8
000290c9
000290ca
000290cb
000290cc
000290cd
000290ce
000290cf
000290d0
000290d1
000290d2
000290d3
000290d4
000290d5
000290d6
000290d7
000290d8
000290d9
000290da
000290db
000290dc
000290dd
000290de
000290df
000290e0
000290e1
000290e2
000290e3
000290e4
000290e5
000290e6
000290e7
000290e8
000290e9
000290ea
000290eb
000290ec
000290ed
000290ee
000290ef
000290f0
000290f1
000290f2
000290f3
000290f4
000290f5
000290f6
000290f7
000290f8
000290f9
000290fa
000290fb
000290fc
000290fd
000290fe
000290ff
0002a000
0002a001
0002a002
0002a003
0002a004
0002a005
0002a006
0002a007
0002a008
0002a009
0002a00a
0002a00b
0002a00c
0002a00d
0002a00e
0002a00f
0002a010
0002a011
0002a012
0002a013
0002a014
0002a015
0002a016
0002a017
0002a018
0002a019
0002a01a
0002a01b
0002a01c
0002a01d
0002a01e
0002a01f
0002a020
0002a021
0002a022
0002a023
0002a024
0002a025
0002a026
0002a027
0002a028
0002a029
0002a02a
0002a02b
0002a02c
0002a02d
0002a02e
0002a02f
0002a030
0002a031
0002a032
0002a033
0002a034
0002a035
0002a036
0002a037
0002a038
0002a039
0002a03a
0002a03b
0002a03c
0002a03d
0002a03e
0002a03f
0002a040
0002a041
0002a042
0002a043
0002a044
0002a045
0002a046
0002a047
0002a048
0002a049
0002a04a
0002a04b
0002a04c
0002a04d
0002a04e
0002a04f
0002a050
0002a051
0002a052
0002a053
0002a054
0002a055
0002a056
0002a057
0002a058
0002a059
0002a05a
0002a05b
0002a05c
0002a05d
0002a05e
0002a05f
0002a060
0002a061
0002a062
0002a063
0002a064
0002a065
0002a066
0002a067
0002a068
0002a069
0002a06a
0002a06b
0002a06c
0002a06d
0002a06e
0002a06f
0002a070
0002a071
0002a072
0002a073
0002a074
0002a075
0002a076
0002a077
0002a078
0002a079
0002a07a
0002a07b
0002a07c
0002a07d
0002a07e
0002a07f
0002a080
0002a081
0002a082
0002a083
0002a084
0002a085
0002a086
0002a087
0002a088
0002a089
0002a08a
0002a08b
0002a08c
0002a08d
0002a08e
0002a08f
0002a090
0002a091
0002a092
0002a093
0002a094
0002a095
0002a096
0002a097
0002a098
0002a099
0002a09a
0002a09b
0002a09c
0002a09d
0002a09e
0002a09f
0002a0a0
0002a0a1
0002a0a2
0002a0a3
0002a0a4
0002a0a5
0002a0a6
0002a0a7
0002a0a8
0002a0a9
0002a0aa
0002a0ab
0002a0ac
0002a0ad
0002a0ae
0002a0af
0002a0b0
0002a0b1
0002a0b2
0002a0b3
0002a0b4
0002a0b5
0002a0b6
0002a0b7
0002a0b8
0002a0b9
0002a0ba
0002a0bb
0002a0bc
0002a0bd
0002a0be
0002a0bf
0002a0c0
0002a0c1
0002a0c2
0002a0c3
0002a0c4
0002a0c5
0002a0c6
0002a0c7
0002a0c8
0002a0c9
0002a0ca
0002a0cb
0002a0cc
0002a0cd
0002a0ce
0002a0cf
0002a0d0
0002a0d1
0002a0d2
0002a0d3
0002a0d4
0002a0d5
0002a0d6
0002a0d7
0002a0d8
0002a0d9
0002a0da
0002a0db
0002a0dc
0002a0dd
0002a0de
0002a0df
0002a0e0
0002a0e1
0002a0e2
0002a0e3
0002a0e4
0002a0e5
0002a0e6
0002a0e7
0002a0e8
0002a0e9
0002a0ea
0002a0eb
0002a0ec
0002a0ed
0002a0ee
0002a0ef
0002a0f0
0002a0f1
0002a0f2
0002a0f3
0002a0f4
0002a0f5
0002a0f6
0002a0f7
0002a0f8
0002a0f9
0002a0fa
0002a0fb
0002a0fc
0002a0fd
0002a0fe
0002a0ff
0002b000
0002b001
0002b002
0002b003
0002b004
0002b005
0002b006
0002b007
0002b008
0002b009
0002b00a
0002b00b
0002b00c
0002b00d
0002b00e
0002b00f
0002b010
0002b011
0002b012
0002b013
0002b014
0002b015
0002b016
0002b017
0002b018
0002b019
0002b01a
0002b01b
0002b01c
0002b01d
0002b01e
0002b01f
0002b020
0002b021
0002b022
0002b023
0002b024
0002b025
0002b026
0002b027
0002b028
0002b029
0002b02a
0002b02b
0002b02c
0002b02d
0002b02e
0002b02f
0002b030
0002b031
0002b032
0002b033
0002b034
0002b035
0002b036
0002b037
0002b038
0002b039
0002b03a
0002b03b
0002b03c
0002b03d
0002b03e
0002b03f
0002b040
0002b041
0002b042
0002b043
0002b044
0002b045
0002b046
0002b047
0002b048
0002b049
0002b04a
0002b04b
0002b04c
0002b04d
0002b04e
0002b04f
0002b050
0002b051
0002b052
0002b053
0002b054
0002b055
0002b056
0002b057
0002b058
0002b059
0002b05a
0002b05b
0002b05c
0002b05d
0002b05e
0002b05f
0002b060
0002b061
0002b062
0002b063
0002b064
0002b065
0002b066
